{
  "version": "1.0",
  "truncation": null,
  "padding": null,
  "added_tokens": [
    {
      "id": 0,
      "content": "[CLS]",
      "single_word": false,
      "lstrip": false,
      "rstrip": false,
      "normalized": false,
      "special": true
    },
    {
      "id": 1,
      "content": "[SEP]",
      "single_word": false,
      "lstrip": false,
      "rstrip": false,
      "normalized": false,
      "special": true
    },
    {
      "id": 2,
      "content": "[PAD]",
      "single_word": false,
      "lstrip": false,
      "rstrip": false,
      "normalized": false,
      "special": true
    },
    {
      "id": 3,
      "content": "[UNK]",
      "single_word": false,
      "lstrip": false,
      "rstrip": false,
      "normalized": false,
      "special": true
    },
    {
      "id": 4,
      "content": "[USR]",
      "single_word": false,
      "lstrip": false,
      "rstrip": false,
      "normalized": false,
      "special": true
    },
    {
      "id": 5,
      "content": "[SYS]",
      "single_word": false,
      "lstrip": false,
      "rstrip": false,
      "normalized": false,
      "special": true
    },
    {
      "id": 6,
      "content": "[EOS]",
      "single_word": false,
      "lstrip": false,
      "rstrip": false,
      "normalized": false,
      "special": true
    },
    {
      "id": 7,
      "content": "[MASK]",
      "single_word": false,
      "lstrip": false,
      "rstrip": false,
      "normalized": false,
      "special": true
    }
  ],
  "normalizer": null,
  "pre_tokenizer": {
    "type": "Whitespace"
  },
  "post_processor": null,
  "decoder": null,
  "model": {
    "type": "BPE",
    "dropout": null,
    "unk_token": "[UNK]",
    "continuing_subword_prefix": null,
    "end_of_word_suffix": null,
    "fuse_unk": false,
    "byte_fallback": false,
    "ignore_merges": false,
    "vocab": {
      "[CLS]": 0,
      "[SEP]": 1,
      "[PAD]": 2,
      "[UNK]": 3,
      "[USR]": 4,
      "[SYS]": 5,
      "[EOS]": 6,
      "[MASK]": 7,
      "!": 8,
      "\"": 9,
      "#": 10,
      "$": 11,
      "%": 12,
      "&": 13,
      "'": 14,
      "(": 15,
      ")": 16,
      "*": 17,
      "+": 18,
      ",": 19,
      "-": 20,
      ".": 21,
      "/": 22,
      "0": 23,
      "1": 24,
      "2": 25,
      "3": 26,
      "4": 27,
      "5": 28,
      "6": 29,
      "7": 30,
      "8": 31,
      "9": 32,
      ":": 33,
      ";": 34,
      "<": 35,
      "=": 36,
      ">": 37,
      "?": 38,
      "A": 39,
      "B": 40,
      "C": 41,
      "D": 42,
      "E": 43,
      "F": 44,
      "G": 45,
      "H": 46,
      "I": 47,
      "J": 48,
      "K": 49,
      "L": 50,
      "M": 51,
      "N": 52,
      "O": 53,
      "P": 54,
      "Q": 55,
      "R": 56,
      "S": 57,
      "T": 58,
      "U": 59,
      "V": 60,
      "W": 61,
      "X": 62,
      "Y": 63,
      "Z": 64,
      "[": 65,
      "]": 66,
      "^": 67,
      "_": 68,
      "`": 69,
      "a": 70,
      "b": 71,
      "c": 72,
      "d": 73,
      "e": 74,
      "f": 75,
      "g": 76,
      "h": 77,
      "i": 78,
      "j": 79,
      "k": 80,
      "l": 81,
      "m": 82,
      "n": 83,
      "o": 84,
      "p": 85,
      "q": 86,
      "r": 87,
      "s": 88,
      "t": 89,
      "u": 90,
      "v": 91,
      "w": 92,
      "x": 93,
      "y": 94,
      "z": 95,
      "{": 96,
      "|": 97,
      "}": 98,
      "~": 99,
      "©": 100,
      "ª": 101,
      "®": 102,
      "¯": 103,
      "°": 104,
      "±": 105,
      "µ": 106,
      "·": 107,
      "º": 108,
      "¼": 109,
      "½": 110,
      "Ñ": 111,
      "×": 112,
      "á": 113,
      "ä": 114,
      "è": 115,
      "é": 116,
      "ê": 117,
      "í": 118,
      "î": 119,
      "ï": 120,
      "ñ": 121,
      "ö": 122,
      "ø": 123,
      "ü": 124,
      "ā": 125,
      "ħ": 126,
      "ō": 127,
      "˚": 128,
      "Δ": 129,
      "Σ": 130,
      "Ψ": 131,
      "Ω": 132,
      "α": 133,
      "β": 134,
      "γ": 135,
      "δ": 136,
      "ε": 137,
      "η": 138,
      "θ": 139,
      "λ": 140,
      "μ": 141,
      "ν": 142,
      "π": 143,
      "ρ": 144,
      "σ": 145,
      "χ": 146,
      "ψ": 147,
      "ӧ": 148,
      "‎": 149,
      "–": 150,
      "—": 151,
      "‘": 152,
      "’": 153,
      "“": 154,
      "”": 155,
      "•": 156,
      "…": 157,
      "′": 158,
      "ℏ": 159,
      "ℓ": 160,
      "™": 161,
      "→": 162,
      "↓": 163,
      "⇌": 164,
      "∆": 165,
      "−": 166,
      "∝": 167,
      "∞": 168,
      "∼": 169,
      "≈": 170,
      "≡": 171,
      "≤": 172,
      "≥": 173,
      "⋅": 174,
      "⎛": 175,
      "⎝": 176,
      "⎞": 177,
      "⎠": 178,
      "⎡": 179,
      "⎣": 180,
      "⎤": 181,
      "⎦": 182,
      "⎯": 183,
      "♦": 184,
      "⟶": 185,
      "th": 186,
      "in": 187,
      "the": 188,
      "re": 189,
      "an": 190,
      "at": 191,
      "on": 192,
      "er": 193,
      "es": 194,
      "en": 195,
      "al": 196,
      "is": 197,
      "or": 198,
      "of": 199,
      "le": 200,
      "ro": 201,
      "ar": 202,
      "ti": 203,
      "to": 204,
      "as": 205,
      "and": 206,
      "ed": 207,
      "he": 208,
      "ic": 209,
      "ac": 210,
      "st": 211,
      "ing": 212,
      "el": 213,
      "ou": 214,
      "it": 215,
      "are": 216,
      "om": 217,
      "se": 218,
      "ion": 219,
      "ol": 220,
      "id": 221,
      "ent": 222,
      "ve": 223,
      "The": 224,
      "su": 225,
      "mo": 226,
      "ec": 227,
      "ow": 228,
      "tion": 229,
      "wh": 230,
      "ch": 231,
      "di": 232,
      "pro": 233,
      "li": 234,
      "tr": 235,
      "ly": 236,
      "for": 237,
      "ter": 238,
      "am": 239,
      "that": 240,
      "ul": 241,
      "ation": 242,
      "ts": 243,
      "uc": 244,
      "con": 245,
      "sp": 246,
      "us": 247,
      "be": 248,
      "ir": 249,
      "un": 250,
      "ma": 251,
      "ell": 252,
      "od": 253,
      "il": 254,
      "em": 255,
      "gh": 256,
      "ure": 257,
      "ur": 258,
      "pl": 259,
      "ce": 260,
      "um": 261,
      "Wh": 262,
      "ex": 263,
      "ver": 264,
      "de": 265,
      "ther": 266,
      "ha": 267,
      "ge": 268,
      "lec": 269,
      "cell": 270,
      "lo": 271,
      "gen": 272,
      "tic": 273,
      "ab": 274,
      "can": 275,
      "im": 276,
      "com": 277,
      "als": 278,
      "ith": 279,
      "po": 280,
      "by": 281,
      "all": 282,
      "ater": 283,
      "ne": 284,
      "rom": 285,
      "per": 286,
      "with": 287,
      "What": 288,
      "ph": 289,
      "from": 290,
      "ain": 291,
      "me": 292,
      "qu": 293,
      "ot": 294,
      "ig": 295,
      "duc": 296,
      "te": 297,
      "what": 298,
      "ate": 299,
      "res": 300,
      "gy": 301,
      "led": 302,
      "ke": 303,
      "cal": 304,
      "ess": 305,
      "fe": 306,
      "ich": 307,
      "ad": 308,
      "bon": 309,
      "sy": 310,
      "form": 311,
      "tw": 312,
      "br": 313,
      "oun": 314,
      "ay": 315,
      "ical": 316,
      "ment": 317,
      "have": 318,
      "pe": 319,
      "other": 320,
      "oc": 321,
      "ergy": 322,
      "water": 323,
      "gan": 324,
      "ty": 325,
      "ple": 326,
      "par": 327,
      "energy": 328,
      "one": 329,
      "which": 330,
      "ds": 331,
      "car": 332,
      "ap": 333,
      "ome": 334,
      "Th": 335,
      "vel": 336,
      "use": 337,
      "ght": 338,
      "organ": 339,
      "produc": 340,
      "ity": 341,
      "called": 342,
      "si": 343,
      "inc": 344,
      "ri": 345,
      "dis": 346,
      "do": 347,
      "ant": 348,
      "elec": 349,
      "cells": 350,
      "lu": 351,
      "ren": 352,
      "ide": 353,
      "ine": 354,
      "ves": 355,
      "rou": 356,
      "co": 357,
      "ers": 358,
      "ut": 359,
      "In": 360,
      "ies": 361,
      "ary": 362,
      "stem": 363,
      "its": 364,
      "ated": 365,
      "cont": 366,
      "str": 367,
      "ach": 368,
      "low": 369,
      "sol": 370,
      "tions": 371,
      "igure": 372,
      "ges": 373,
      "sh": 374,
      "not": 375,
      "out": 376,
      "electr": 377,
      "they": 378,
      "act": 379,
      "into": 380,
      "red": 381,
      "ally": 382,
      "Figure": 383,
      "sis": 384,
      "ous": 385,
      "ans": 386,
      "ons": 387,
      "ill": 388,
      "fo": 389,
      "system": 390,
      "dif": 391,
      "und": 392,
      "ms": 393,
      "hy": 394,
      "cur": 395,
      "ase": 396,
      "les": 397,
      "ra": 398,
      "spec": 399,
      "ox": 400,
      "any": 401,
      "own": 402,
      "molec": 403,
      "vol": 404,
      "ass": 405,
      "pres": 406,
      "atom": 407,
      "our": 408,
      "ates": 409,
      "ca": 410,
      "ular": 411,
      "we": 412,
      "their": 413,
      "two": 414,
      "chan": 415,
      "also": 416,
      "ace": 417,
      "op": 418,
      "ins": 419,
      "tive": 420,
      "end": 421,
      "ect": 422,
      "here": 423,
      "blo": 424,
      "hem": 425,
      "mon": 426,
      "ody": 427,
      ").": 428,
      "this": 429,
      "up": 430,
      "rough": 431,
      "body": 432,
      "cess": 433,
      "ame": 434,
      "feren": 435,
      "ob": 436,
      "ort": 437,
      "bel": 438,
      "has": 439,
      "so": 440,
      "This": 441,
      "bo": 442,
      "through": 443,
      "est": 444,
      "blood": 445,
      "when": 446,
      "more": 447,
      "ids": 448,
      "cy": 449,
      "ature": 450,
      "able": 451,
      "ound": 452,
      "bec": 453,
      "sur": 454,
      "most": 455,
      "reac": 456,
      "below": 457,
      "ong": 458,
      "ases": 459,
      "differen": 460,
      "plan": 461,
      "ture": 462,
      "ak": 463,
      "col": 464,
      "comp": 465,
      "fi": 466,
      "ens": 467,
      "may": 468,
      "exam": 469,
      "ci": 470,
      "light": 471,
      "int": 472,
      "than": 473,
      "ces": 474,
      "used": 475,
      "some": 476,
      "carbon": 477,
      "hyd": 478,
      "ving": 479,
      "organis": 480,
      "wa": 481,
      "if": 482,
      "ance": 483,
      "ucle": 484,
      "chem": 485,
      "ents": 486,
      "sub": 487,
      "vi": 488,
      "ules": 489,
      "twe": 490,
      "bi": 491,
      "cle": 492,
      "tween": 493,
      "process": 494,
      "air": 495,
      "ear": 496,
      "age": 497,
      "between": 498,
      "hi": 499,
      "cent": 500,
      "ind": 501,
      "char": 502,
      "occur": 503,
      "ble": 504,
      "you": 505,
      "gi": 506,
      "fer": 507,
      "ause": 508,
      "such": 509,
      "cre": 510,
      "inter": 511,
      "ors": 512,
      "lar": 513,
      "mat": 514,
      "ial": 515,
      "iz": 516,
      "ag": 517,
      "ence": 518,
      "ations": 519,
      "nucle": 520,
      "but": 521,
      "gro": 522,
      "sm": 523,
      "tis": 524,
      "ati": 525,
      "inclu": 526,
      "type": 527,
      "des": 528,
      "pol": 529,
      "ps": 530,
      "enti": 531,
      "example": 532,
      "embr": 533,
      "ions": 534,
      "pos": 535,
      "ust": 536,
      "prote": 537,
      "ree": 538,
      "wor": 539,
      "gl": 540,
      "contain": 541,
      "It": 542,
      "ff": 543,
      "way": 544,
      "molecules": 545,
      "tem": 546,
      "different": 547,
      "ber": 548,
      "sul": 549,
      "met": 550,
      "many": 551,
      "rec": 552,
      "They": 553,
      "ele": 554,
      "struc": 555,
      "pes": 556,
      "ory": 557,
      "acter": 558,
      "fun": 559,
      "very": 560,
      "partic": 561,
      "phy": 562,
      "ments": 563,
      "ld": 564,
      "ved": 565,
      "food": 566,
      "ast": 567,
      "small": 568,
      "chemical": 569,
      "mus": 570,
      "vid": 571,
      "num": 572,
      "organisms": 573,
      "species": 574,
      "perature": 575,
      "like": 576,
      "ia": 577,
      "oxy": 578,
      "each": 579,
      "mal": 580,
      "ose": 581,
      "hydro": 582,
      "ack": 583,
      "will": 584,
      "mag": 585,
      "resp": 586,
      "An": 587,
      "anim": 588,
      "nan": 589,
      "ted": 590,
      "ep": 591,
      "gas": 592,
      "ner": 593,
      "temperature": 594,
      "kn": 595,
      "high": 596,
      "atoms": 597,
      "ven": 598,
      "ll": 599,
      "sure": 600,
      "plants": 601,
      "vir": 602,
      "because": 603,
      "ely": 604,
      "tissu": 605,
      "ane": 606,
      "rel": 607,
      "term": 608,
      "how": 609,
      "ution": 610,
      "ss": 611,
      "only": 612,
      "move": 613,
      "cl": 614,
      "ting": 615,
      "imp": 616,
      "tro": 617,
      "ck": 618,
      "der": 619,
      "reg": 620,
      "val": 621,
      "hum": 622,
      "tra": 623,
      "where": 624,
      "subst": 625,
      "structure": 626,
      "surf": 627,
      "change": 628,
      "membr": 629,
      "incre": 630,
      "oxygen": 631,
      "trans": 632,
      "pho": 633,
      "For": 634,
      "these": 635,
      "syn": 636,
      "electrons": 637,
      "os": 638,
      "ite": 639,
      "cer": 640,
      "ser": 641,
      "ist": 642,
      "same": 643,
      "uses": 644,
      "gene": 645,
      "ath": 646,
      "produce": 647,
      "ry": 648,
      "When": 649,
      "ost": 650,
      "pp": 651,
      "et": 652,
      "ings": 653,
      "tri": 654,
      "tes": 655,
      "does": 656,
      "omes": 657,
      "radi": 658,
      "gener": 659,
      "ari": 660,
      "mes": 661,
      "over": 662,
      "velop": 663,
      "gs": 664,
      "00": 665,
      "mi": 666,
      "about": 667,
      "fr": 668,
      "arth": 669,
      "olo": 670,
      "cor": 671,
      "uring": 672,
      "pul": 673,
      "ating": 674,
      "pre": 675,
      "grow": 676,
      "develop": 677,
      "bre": 678,
      "pressure": 679,
      "resul": 680,
      "cri": 681,
      "surface": 682,
      "flow": 683,
      "func": 684,
      "number": 685,
      "ding": 686,
      "acid": 687,
      "vity": 688,
      "ould": 689,
      "matter": 690,
      "dec": 691,
      "hor": 692,
      "direc": 693,
      "pr": 694,
      "ext": 695,
      "part": 696,
      "ties": 697,
      "ual": 698,
      "see": 699,
      "NA": 700,
      "obj": 701,
      "no": 702,
      "down": 703,
      "sci": 704,
      "there": 705,
      "reaction": 706,
      "How": 707,
      "common": 708,
      "mass": 709,
      "types": 710,
      "sim": 711,
      "ard": 712,
      "gre": 713,
      "liqu": 714,
      "ever": 715,
      "found": 716,
      "ects": 717,
      "membrane": 718,
      "grou": 719,
      "urn": 720,
      "ta": 721,
      "sto": 722,
      "orb": 723,
      "magne": 724,
      "make": 725,
      "requ": 726,
      "ese": 727,
      "ounds": 728,
      "force": 729,
      "rele": 730,
      "time": 731,
      "Earth": 732,
      "waves": 733,
      "occurs": 734,
      "synthe": 735,
      "hel": 736,
      "level": 737,
      "ish": 738,
      "go": 739,
      "less": 740,
      "round": 741,
      "posi": 742,
      "ount": 743,
      "plas": 744,
      "min": 745,
      "centr": 746,
      "known": 747,
      "include": 748,
      "proteins": 749,
      "vent": 750,
      "sti": 751,
      "atur": 752,
      "ased": 753,
      "divid": 754,
      "fore": 755,
      "mic": 756,
      "ue": 757,
      "med": 758,
      "ran": 759,
      "large": 760,
      "particles": 761,
      "romo": 762,
      "equ": 763,
      "peri": 764,
      "flu": 765,
      "three": 766,
      "ists": 767,
      "These": 768,
      "both": 769,
      "prot": 770,
      "living": 771,
      "need": 772,
      "life": 773,
      "under": 774,
      "mater": 775,
      "was": 776,
      "comple": 777,
      "new": 778,
      "reactions": 779,
      "made": 780,
      "allow": 781,
      "rock": 782,
      "long": 783,
      "There": 784,
      "ten": 785,
      "plant": 786,
      "ign": 787,
      "Some": 788,
      "evol": 789,
      "them": 790,
      "art": 791,
      "dise": 792,
      "vis": 793,
      "As": 794,
      "sing": 795,
      "ances": 796,
      "eng": 797,
      "chromo": 798,
      "zy": 799,
      "lay": 800,
      "trac": 801,
      "respon": 802,
      "tebr": 803,
      "import": 804,
      "ks": 805,
      "proper": 806,
      "elements": 807,
      "),": 808,
      "fic": 809,
      "ands": 810,
      "animals": 811,
      "let": 812,
      "viron": 813,
      "la": 814,
      "clo": 815,
      "environ": 816,
      "ight": 817,
      "uch": 818,
      "changes": 819,
      "ium": 820,
      "fact": 821,
      "cep": 822,
      "tissue": 823,
      "If": 824,
      "forms": 825,
      "lim": 826,
      "els": 827,
      "compounds": 828,
      "eff": 829,
      "sha": 830,
      "ific": 831,
      "ative": 832,
      "irst": 833,
      "ized": 834,
      "liquid": 835,
      "sion": 836,
      "consis": 837,
      "gether": 838,
      "tu": 839,
      "hydrogen": 840,
      "important": 841,
      "ines": 842,
      "bacter": 843,
      "kary": 844,
      "electric": 845,
      "dep": 846,
      "ae": 847,
      "ech": 848,
      "acids": 849,
      "lea": 850,
      "meas": 851,
      "ule": 852,
      "ough": 853,
      "otic": 854,
      "eg": 855,
      "together": 856,
      "vertebr": 857,
      "sphere": 858,
      "cap": 859,
      "dist": 860,
      "main": 861,
      "sk": 862,
      "during": 863,
      "nor": 864,
      "nit": 865,
      "arm": 866,
      "tran": 867,
      "ger": 868,
      "cause": 869,
      "oxide": 870,
      "mul": 871,
      "vari": 872,
      "human": 873,
      "diges": 874,
      "bu": 875,
      "muscle": 876,
      "magnetic": 877,
      "tain": 878,
      "lor": 879,
      "non": 880,
      "first": 881,
      "ze": 882,
      "within": 883,
      "contro": 884,
      "heat": 885,
      "reproduc": 886,
      "amount": 887,
      "oid": 888,
      "ful": 889,
      "bonds": 890,
      "vely": 891,
      "abs": 892,
      "measure": 893,
      "bers": 894,
      "pot": 895,
      "sal": 896,
      "nucleus": 897,
      "work": 898,
      "ined": 899,
      "mun": 900,
      "ile": 901,
      "oce": 902,
      "environment": 903,
      "gra": 904,
      "ucose": 905,
      "invol": 906,
      "atic": 907,
      "olog": 908,
      "ink": 909,
      "ains": 910,
      "ways": 911,
      "genetic": 912,
      "cond": 913,
      "sper": 914,
      "tern": 915,
      "pass": 916,
      "solu": 917,
      "well": 918,
      "off": 919,
      "photo": 920,
      "sed": 921,
      "protein": 922,
      "group": 923,
      "another": 924,
      "somes": 925,
      "inal": 926,
      "back": 927,
      "show": 928,
      "genes": 929,
      "akes": 930,
      "break": 931,
      "hol": 932,
      "gr": 933,
      "path": 934,
      "synthesis": 935,
      "ged": 936,
      "ris": 937,
      "concentr": 938,
      "ility": 939,
      "molecule": 940,
      "ides": 941,
      "function": 942,
      "brain": 943,
      "heart": 944,
      "control": 945,
      "amin": 946,
      "def": 947,
      "ior": 948,
      "rate": 949,
      "cir": 950,
      "present": 951,
      "star": 952,
      "descri": 953,
      "glucose": 954,
      "cles": 955,
      "fter": 956,
      "ax": 957,
      "year": 958,
      "ick": 959,
      "single": 960,
      "much": 961,
      "usu": 962,
      "ically": 963,
      "cular": 964,
      "rogen": 965,
      "place": 966,
      "plac": 967,
      "DNA": 968,
      "bone": 969,
      "substances": 970,
      "Most": 971,
      "then": 972,
      "cycle": 973,
      "bacteria": 974,
      "ants": 975,
      "acti": 976,
      "ength": 977,
      "transp": 978,
      "get": 979,
      "ential": 980,
      "ually": 981,
      "ste": 982,
      "mak": 983,
      "neu": 984,
      "anti": 985,
      "side": 986,
      "organs": 987,
      "systems": 988,
      "tor": 989,
      "curren": 990,
      "fol": 991,
      "electron": 992,
      "substance": 993,
      "object": 994,
      "jo": 995,
      "sign": 996,
      "ene": 997,
      "ice": 998,
      "dioxide": 999,
      "electro": 1000,
      "ip": 1001,
      "element": 1002,
      "til": 1003,
      "bir": 1004,
      "your": 1005,
      "atmo": 1006,
      "usually": 1007,
      "sun": 1008,
      "comb": 1009,
      "phys": 1010,
      "formed": 1011,
      "point": 1012,
      "__": 1013,
      "causes": 1014,
      "dition": 1015,
      "must": 1016,
      "utri": 1017,
      "bas": 1018,
      "would": 1019,
      "loc": 1020,
      "popul": 1021,
      "You": 1022,
      "things": 1023,
      "contains": 1024,
      "contin": 1025,
      "ring": 1026,
      "nec": 1027,
      "solution": 1028,
      "area": 1029,
      "metals": 1030,
      "turn": 1031,
      "prim": 1032,
      "ud": 1033,
      "sible": 1034,
      "ove": 1035,
      "just": 1036,
      "natur": 1037,
      "kelet": 1038,
      "assi": 1039,
      "lun": 1040,
      "supp": 1041,
      "liz": 1042,
      "enzy": 1043,
      "ples": 1044,
      "earth": 1045,
      "solid": 1046,
      "sex": 1047,
      "bones": 1048,
      "jor": 1049,
      "inf": 1050,
      "help": 1051,
      "often": 1052,
      "ils": 1053,
      "disease": 1054,
      "ocean": 1055,
      "were": 1056,
      "ground": 1057,
      "bro": 1058,
      "wall": 1059,
      "chlor": 1060,
      "character": 1061,
      "amm": 1062,
      "posed": 1063,
      "result": 1064,
      "properties": 1065,
      "produced": 1066,
      "tissues": 1067,
      "secre": 1068,
      "her": 1069,
      "period": 1070,
      "ref": 1071,
      "second": 1072,
      "nutri": 1073,
      "major": 1074,
      "All": 1075,
      "aff": 1076,
      "pare": 1077,
      "determ": 1078,
      "ected": 1079,
      "four": 1080,
      "skin": 1081,
      "tal": 1082,
      "ross": 1083,
      "cul": 1084,
      "tical": 1085,
      "Al": 1086,
      "ster": 1087,
      "ters": 1088,
      "atmosphere": 1089,
      "sour": 1090,
      "micro": 1091,
      "por": 1092,
      "tre": 1093,
      "mut": 1094,
      "vers": 1095,
      "structures": 1096,
      "atory": 1097,
      "metal": 1098,
      "ft": 1099,
      "requi": 1100,
      "ogen": 1101,
      "ume": 1102,
      "consists": 1103,
      "neutr": 1104,
      "cel": 1105,
      "using": 1106,
      "vide": 1107,
      "above": 1108,
      "separ": 1109,
      "ays": 1110,
      "ili": 1111,
      "material": 1112,
      "individ": 1113,
      "respir": 1114,
      "evolution": 1115,
      "Li": 1116,
      "fil": 1117,
      "mar": 1118,
      "been": 1119,
      "wave": 1120,
      "layer": 1121,
      "current": 1122,
      "Ex": 1123,
      "times": 1124,
      "av": 1125,
      "rest": 1126,
      "formation": 1127,
      "vous": 1128,
      "However": 1129,
      "ord": 1130,
      "try": 1131,
      "bond": 1132,
      "organic": 1133,
      "specific": 1134,
      "land": 1135,
      "ople": 1136,
      "shown": 1137,
      "fiel": 1138,
      "organism": 1139,
      "charge": 1140,
      "mix": 1141,
      "uit": 1142,
      "ism": 1143,
      "que": 1144,
      "mones": 1145,
      "state": 1146,
      "lower": 1147,
      "fem": 1148,
      "istic": 1149,
      "tract": 1150,
      "sym": 1151,
      "position": 1152,
      "polar": 1153,
      "chromosomes": 1154,
      "fish": 1155,
      "ward": 1156,
      "entists": 1157,
      "ocy": 1158,
      "transport": 1159,
      "ok": 1160,
      "read": 1161,
      "muscles": 1162,
      "au": 1163,
      "bal": 1164,
      "dr": 1165,
      "levels": 1166,
      "reduc": 1167,
      "size": 1168,
      "direction": 1169,
      "increases": 1170,
      "react": 1171,
      "sum": 1172,
      "uni": 1173,
      "ric": 1174,
      "volume": 1175,
      "absorb": 1176,
      "years": 1177,
      "fat": 1178,
      "oth": 1179,
      "ends": 1180,
      "hal": 1181,
      "sec": 1182,
      "att": 1183,
      "aries": 1184,
      "amino": 1185,
      "natural": 1186,
      "sug": 1187,
      "cannot": 1188,
      "become": 1189,
      "lead": 1190,
      "happ": 1191,
      "animal": 1192,
      "around": 1193,
      "skelet": 1194,
      "vas": 1195,
      "nervous": 1196,
      "ilar": 1197,
      "even": 1198,
      "row": 1199,
      "cr": 1200,
      "enc": 1201,
      "soil": 1202,
      "travel": 1203,
      "Many": 1204,
      "dom": 1205,
      "depend": 1206,
      "active": 1207,
      "compound": 1208,
      "live": 1209,
      "shape": 1210,
      "ys": 1211,
      "Pro": 1212,
      "ei": 1213,
      "verse": 1214,
      "ints": 1215,
      "while": 1216,
      "kind": 1217,
      "after": 1218,
      "frequ": 1219,
      "molecular": 1220,
      "ammals": 1221,
      "she": 1222,
      "given": 1223,
      "take": 1224,
      "sperm": 1225,
      "lip": 1226,
      "ability": 1227,
      "dissol": 1228,
      "growth": 1229,
      "direct": 1230,
      "gases": 1231,
      "ni": 1232,
      "pair": 1233,
      "shows": 1234,
      "bl": 1235,
      "nal": 1236,
      "fl": 1237,
      "concentration": 1238,
      "name": 1239,
      "inside": 1240,
      "tin": 1241,
      "miner": 1242,
      "fluid": 1243,
      "lungs": 1244,
      "10": 1245,
      "neur": 1246,
      "certain": 1247,
      "ages": 1248,
      "ild": 1249,
      "hormones": 1250,
      "tiliz": 1251,
      "Which": 1252,
      "bit": 1253,
      "population": 1254,
      "carry": 1255,
      "ses": 1256,
      "conver": 1257,
      "color": 1258,
      "orbit": 1259,
      "leaves": 1260,
      "dium": 1261,
      "cept": 1262,
      "potential": 1263,
      "mer": 1264,
      "mach": 1265,
      "exp": 1266,
      "ult": 1267,
      "immun": 1268,
      "special": 1269,
      "increase": 1270,
      "nitrogen": 1271,
      "neg": 1272,
      "photosynthesis": 1273,
      "without": 1274,
      "apor": 1275,
      "fied": 1276,
      "ale": 1277,
      "sever": 1278,
      "beg": 1279,
      "strong": 1280,
      "higher": 1281,
      "follow": 1282,
      "ense": 1283,
      "motion": 1284,
      "moving": 1285,
      "spe": 1286,
      "ploid": 1287,
      "sequ": 1288,
      "regul": 1289,
      "several": 1290,
      "cat": 1291,
      "pic": 1292,
      "alle": 1293,
      "usion": 1294,
      "havi": 1295,
      "transfer": 1296,
      "20": 1297,
      "arter": 1298,
      "bed": 1299,
      "arn": 1300,
      "phase": 1301,
      "caused": 1302,
      "ology": 1303,
      "functions": 1304,
      "game": 1305,
      "vapor": 1306,
      "expl": 1307,
      "cellular": 1308,
      "movement": 1309,
      "normal": 1310,
      "Each": 1311,
      "humans": 1312,
      "atively": 1313,
      "physical": 1314,
      "ive": 1315,
      "aly": 1316,
      "conduc": 1317,
      "otes": 1318,
      "cyto": 1319,
      "eu": 1320,
      "lit": 1321,
      "people": 1322,
      "complex": 1323,
      "pit": 1324,
      "space": 1325,
      "being": 1326,
      "right": 1327,
      "decre": 1328,
      "echan": 1329,
      "ey": 1330,
      "unit": 1331,
      "atomic": 1332,
      "radiation": 1333,
      "makes": 1334,
      "pow": 1335,
      "ars": 1336,
      "few": 1337,
      "though": 1338,
      "order": 1339,
      "behavi": 1340,
      "eas": 1341,
      "osis": 1342,
      "compon": 1343,
      "either": 1344,
      "ency": 1345,
      "near": 1346,
      "karyotic": 1347,
      "nam": 1348,
      "rop": 1349,
      "day": 1350,
      "ped": 1351,
      "objects": 1352,
      "nutrients": 1353,
      "stand": 1354,
      "abol": 1355,
      "produces": 1356,
      "paren": 1357,
      "Bec": 1358,
      "oci": 1359,
      "processes": 1360,
      "stud": 1361,
      "onic": 1362,
      "stant": 1363,
      "release": 1364,
      "phosp": 1365,
      "ials": 1366,
      "embry": 1367,
      "action": 1368,
      "appe": 1369,
      "We": 1370,
      "ores": 1371,
      "including": 1372,
      "greater": 1373,
      "Because": 1374,
      "line": 1375,
      "velength": 1376,
      "similar": 1377,
      "characteristic": 1378,
      "fu": 1379,
      "na": 1380,
      "eco": 1381,
      "ather": 1382,
      "mammals": 1383,
      "maint": 1384,
      "intest": 1385,
      "reproduction": 1386,
      "speed": 1387,
      "means": 1388,
      "bin": 1389,
      "base": 1390,
      "vascular": 1391,
      "takes": 1392,
      "thy": 1393,
      "multi": 1394,
      "mechan": 1395,
      "forces": 1396,
      "plic": 1397,
      "spring": 1398,
      "development": 1399,
      "En": 1400,
      "ryst": 1401,
      "eat": 1402,
      "vess": 1403,
      "nerve": 1404,
      "Pl": 1405,
      "ww": 1406,
      "alk": 1407,
      "seed": 1408,
      "wavelength": 1409,
      "study": 1410,
      "ones": 1411,
      "obser": 1412,
      "At": 1413,
      "ang": 1414,
      "ond": 1415,
      "Mo": 1416,
      "internal": 1417,
      "response": 1418,
      "man": 1419,
      "stre": 1420,
      "dies": 1421,
      "plasma": 1422,
      "field": 1423,
      "fur": 1424,
      "glo": 1425,
      "hypo": 1426,
      "rates": 1427,
      "cancer": 1428,
      "pti": 1429,
      "fertiliz": 1430,
      "pathogen": 1431,
      "anes": 1432,
      "idne": 1433,
      "gest": 1434,
      "mis": 1435,
      "valent": 1436,
      "law": 1437,
      "thing": 1438,
      "poly": 1439,
      "released": 1440,
      "dam": 1441,
      "ator": 1442,
      "One": 1443,
      "learn": 1444,
      "fall": 1445,
      "mol": 1446,
      "smaller": 1447,
      "bes": 1448,
      "ination": 1449,
      "ise": 1450,
      "know": 1451,
      "cryst": 1452,
      "ible": 1453,
      "mod": 1454,
      "nuclear": 1455,
      "sodium": 1456,
      "relation": 1457,
      "located": 1458,
      "fusion": 1459,
      "those": 1460,
      "constant": 1461,
      "positive": 1462,
      "karyotes": 1463,
      "hemical": 1464,
      "enzymes": 1465,
      "source": 1466,
      "ider": 1467,
      "addition": 1468,
      "oxid": 1469,
      "simple": 1470,
      "head": 1471,
      "larger": 1472,
      "warm": 1473,
      "stimul": 1474,
      "ho": 1475,
      "outer": 1476,
      "enter": 1477,
      "moves": 1478,
      "bohyd": 1479,
      "allows": 1480,
      "mone": 1481,
      "left": 1482,
      "typ": 1483,
      "carri": 1484,
      "charged": 1485,
      "sens": 1486,
      "ited": 1487,
      "open": 1488,
      "includes": 1489,
      "kidne": 1490,
      "pred": 1491,
      "Com": 1492,
      "ded": 1493,
      "ionic": 1494,
      "inetic": 1495,
      "surround": 1496,
      "generally": 1497,
      "range": 1498,
      "materials": 1499,
      "directly": 1500,
      "Con": 1501,
      "based": 1502,
      "along": 1503,
      "ew": 1504,
      "ption": 1505,
      "come": 1506,
      "adap": 1507,
      "distance": 1508,
      "due": 1509,
      "negative": 1510,
      "parts": 1511,
      "ensity": 1512,
      "eggs": 1513,
      "primary": 1514,
      "outh": 1515,
      "electrical": 1516,
      "rocks": 1517,
      "hormone": 1518,
      "Ch": 1519,
      "On": 1520,
      "pat": 1521,
      "arch": 1522,
      "chromosome": 1523,
      "mel": 1524,
      "mill": 1525,
      "ental": 1526,
      "every": 1527,
      "radio": 1528,
      "electromagnetic": 1529,
      "ince": 1530,
      "ula": 1531,
      "basic": 1532,
      "power": 1533,
      "RNA": 1534,
      "thod": 1535,
      "percent": 1536,
      "classi": 1537,
      "pi": 1538,
      "across": 1539,
      "ditions": 1540,
      "ization": 1541,
      "science": 1542,
      "vision": 1543,
      "vessels": 1544,
      "region": 1545,
      "vertebrates": 1546,
      "immune": 1547,
      "relationsh": 1548,
      "gly": 1549,
      "va": 1550,
      "conditions": 1551,
      "oppos": 1552,
      "digestive": 1553,
      "ging": 1554,
      "examples": 1555,
      "groups": 1556,
      "helps": 1557,
      "ological": 1558,
      "mixture": 1559,
      "short": 1560,
      "particular": 1561,
      "attach": 1562,
      "burn": 1563,
      "ots": 1564,
      "vation": 1565,
      "anch": 1566,
      "tosis": 1567,
      "results": 1568,
      "Car": 1569,
      "Other": 1570,
      "plate": 1571,
      "expres": 1572,
      "feed": 1573,
      "cool": 1574,
      "ension": 1575,
      "relatively": 1576,
      "protons": 1577,
      "bs": 1578,
      "mph": 1579,
      "foss": 1580,
      "egg": 1581,
      "12": 1582,
      "ht": 1583,
      "stable": 1584,
      "poll": 1585,
      "provid": 1586,
      "products": 1587,
      "diseases": 1588,
      "effect": 1589,
      "clim": 1590,
      "respiration": 1591,
      "kinetic": 1592,
      "survi": 1593,
      "tur": 1594,
      "app": 1595,
      "production": 1596,
      "glands": 1597,
      "19": 1598,
      "ness": 1599,
      "enough": 1600,
      "ites": 1601,
      "carbohyd": 1602,
      "Sun": 1603,
      "Un": 1604,
      "slow": 1605,
      "tle": 1606,
      "xim": 1607,
      "ared": 1608,
      "nuclei": 1609,
      "needed": 1610,
      "free": 1611,
      "ily": 1612,
      "mil": 1613,
      "rine": 1614,
      "reproduce": 1615,
      "female": 1616,
      "Water": 1617,
      "flo": 1618,
      "my": 1619,
      "smo": 1620,
      "happens": 1621,
      "hot": 1622,
      "oles": 1623,
      "ators": 1624,
      "scal": 1625,
      "gravity": 1626,
      "put": 1627,
      "composed": 1628,
      "tube": 1629,
      "maintain": 1630,
      "ici": 1631,
      "reproductive": 1632,
      "celer": 1633,
      "zone": 1634,
      "conn": 1635,
      "But": 1636,
      "asing": 1637,
      "loss": 1638,
      "offspring": 1639,
      "ov": 1640,
      "test": 1641,
      "wo": 1642,
      "reach": 1643,
      "ats": 1644,
      "pers": 1645,
      "planet": 1646,
      "ately": 1647,
      "ics": 1648,
      "fibers": 1649,
      "traits": 1650,
      "Like": 1651,
      "pa": 1652,
      "py": 1653,
      "sound": 1654,
      "uter": 1655,
      "who": 1656,
      "contrac": 1657,
      "ush": 1658,
      "fungi": 1659,
      "phen": 1660,
      "pollu": 1661,
      "now": 1662,
      "sw": 1663,
      "appro": 1664,
      "birds": 1665,
      "individual": 1666,
      "later": 1667,
      "rain": 1668,
      "orig": 1669,
      "before": 1670,
      "000": 1671,
      "To": 1672,
      "refer": 1673,
      "ement": 1674,
      "iment": 1675,
      "world": 1676,
      "scientists": 1677,
      "factors": 1678,
      "Cell": 1679,
      "ophy": 1680,
      "table": 1681,
      "heal": 1682,
      "18": 1683,
      "vit": 1684,
      "iron": 1685,
      "theory": 1686,
      "represent": 1687,
      "chain": 1688,
      "stead": 1689,
      "shell": 1690,
      "thal": 1691,
      "outs": 1692,
      "coll": 1693,
      "intestine": 1694,
      "away": 1695,
      "sea": 1696,
      "associ": 1697,
      "male": 1698,
      "too": 1699,
      "resour": 1700,
      "resist": 1701,
      "covalent": 1702,
      "decay": 1703,
      "bound": 1704,
      "rap": 1705,
      "lection": 1706,
      "tiny": 1707,
      ":.": 1708,
      "ude": 1709,
      "alg": 1710,
      "always": 1711,
      "outside": 1712,
      "far": 1713,
      "?.": 1714,
      "class": 1715,
      "layers": 1716,
      "could": 1717,
      "vered": 1718,
      "During": 1719,
      "ini": 1720,
      "electricity": 1721,
      "activity": 1722,
      "sunlight": 1723,
      "attrac": 1724,
      "volcan": 1725,
      "bodies": 1726,
      "oil": 1727,
      "anc": 1728,
      "proble": 1729,
      "possible": 1730,
      "lack": 1731,
      "covered": 1732,
      "entific": 1733,
      "related": 1734,
      "prevent": 1735,
      "hemo": 1736,
      "why": 1737,
      "throughout": 1738,
      "Elec": 1739,
      "dia": 1740,
      "again": 1741,
      "capill": 1742,
      "solute": 1743,
      "minerals": 1744,
      "Sci": 1745,
      "bar": 1746,
      "ont": 1747,
      "iction": 1748,
      "evolved": 1749,
      "ore": 1750,
      "sa": 1751,
      "tend": 1752,
      "green": 1753,
      "role": 1754,
      "acceler": 1755,
      "terior": 1756,
      "units": 1757,
      "method": 1758,
      "stomach": 1759,
      "//": 1760,
      "://": 1761,
      "Ac": 1762,
      "ub": 1763,
      "ection": 1764,
      "htt": 1765,
      "fy": 1766,
      "pec": 1767,
      "run": 1768,
      "sco": 1769,
      "lex": 1770,
      "aces": 1771,
      "stage": 1772,
      "call": 1773,
      "ission": 1774,
      "neurons": 1775,
      "think": 1776,
      "information": 1777,
      "actions": 1778,
      "aturated": 1779,
      "medi": 1780,
      "defined": 1781,
      "half": 1782,
      "ail": 1783,
      "bene": 1784,
      "dou": 1785,
      "ton": 1786,
      "tial": 1787,
      "provide": 1788,
      "verage": 1789,
      "skeleton": 1790,
      "stream": 1791,
      "play": 1792,
      "exer": 1793,
      "sugar": 1794,
      "appear": 1795,
      "Cl": 1796,
      "set": 1797,
      "cium": 1798,
      "central": 1799,
      "joint": 1800,
      "http": 1801,
      "oti": 1802,
      "top": 1803,
      "hair": 1804,
      "inds": 1805,
      "arran": 1806,
      "phs": 1807,
      "ously": 1808,
      "atch": 1809,
      "branch": 1810,
      "ocity": 1811,
      "salt": 1812,
      "gal": 1813,
      "length": 1814,
      "states": 1815,
      "thermal": 1816,
      "gives": 1817,
      "might": 1818,
      "divided": 1819,
      "lik": 1820,
      "difference": 1821,
      "gland": 1822,
      "membranes": 1823,
      "involved": 1824,
      "portion": 1825,
      "ram": 1826,
      "ode": 1827,
      "keep": 1828,
      "That": 1829,
      "Where": 1830,
      "lum": 1831,
      "inner": 1832,
      "cavity": 1833,
      "metabol": 1834,
      "pathogens": 1835,
      "next": 1836,
      "look": 1837,
      "circul": 1838,
      "support": 1839,
      "With": 1840,
      "pH": 1841,
      "cold": 1842,
      "temperatures": 1843,
      "valence": 1844,
      "mid": 1845,
      "old": 1846,
      "cartil": 1847,
      "ize": 1848,
      "____": 1849,
      "walls": 1850,
      "Both": 1851,
      "acc": 1852,
      "responsible": 1853,
      "opposite": 1854,
      "ning": 1855,
      "wind": 1856,
      "rot": 1857,
      "until": 1858,
      "still": 1859,
      "birth": 1860,
      "ensi": 1861,
      "velocity": 1862,
      "becomes": 1863,
      "numbers": 1864,
      "whereas": 1865,
      "typically": 1866,
      "14": 1867,
      "bab": 1868,
      "stor": 1869,
      "elf": 1870,
      "white": 1871,
      "solar": 1872,
      "fix": 1873,
      "particle": 1874,
      "continu": 1875,
      "frequency": 1876,
      "link": 1877,
      "vents": 1878,
      "insul": 1879,
      "weak": 1880,
      "characteristics": 1881,
      "referred": 1882,
      "likely": 1883,
      "15": 1884,
      "uals": 1885,
      "calcium": 1886,
      "rise": 1887,
      "affect": 1888,
      "mutations": 1889,
      "specialized": 1890,
      "ima": 1891,
      "least": 1892,
      "protis": 1893,
      "give": 1894,
      "parent": 1895,
      "associated": 1896,
      "Or": 1897,
      "elles": 1898,
      "cardi": 1899,
      "involves": 1900,
      "eye": 1901,
      "istry": 1902,
      "division": 1903,
      "spinal": 1904,
      "weight": 1905,
      "weather": 1906,
      "circ": 1907,
      "unique": 1908,
      "Table": 1909,
      "lies": 1910,
      "biotic": 1911,
      "cord": 1912,
      "stored": 1913,
      "depends": 1914,
      "digestion": 1915,
      "exper": 1916,
      "comes": 1917,
      "ocrine": 1918,
      "hydrocarbon": 1919,
      "great": 1920,
      "necess": 1921,
      "density": 1922,
      "ark": 1923,
      "tively": 1924,
      "modif": 1925,
      "described": 1926,
      "algae": 1927,
      "23": 1928,
      "bor": 1929,
      "connec": 1930,
      "however": 1931,
      "visible": 1932,
      "components": 1933,
      "insec": 1934,
      "ote": 1935,
      "plasm": 1936,
      "average": 1937,
      "bind": 1938,
      "yl": 1939,
      "remain": 1940,
      "anterior": 1941,
      "acts": 1942,
      "mean": 1943,
      "ounts": 1944,
      "scientific": 1945,
      "ternal": 1946,
      "placed": 1947,
      "fertilization": 1948,
      "Hum": 1949,
      "ake": 1950,
      "disc": 1951,
      "rapid": 1952,
      "CO": 1953,
      "bul": 1954,
      "case": 1955,
      "ety": 1956,
      "oes": 1957,
      "sts": 1958,
      "identi": 1959,
      "ulation": 1960,
      "spread": 1961,
      "exist": 1962,
      "waste": 1963,
      "separate": 1964,
      "relationship": 1965,
      "rece": 1966,
      "ason": 1967,
      "aster": 1968,
      "areas": 1969,
      "oment": 1970,
      "quick": 1971,
      "gametes": 1972,
      "pum": 1973,
      "ining": 1974,
      "enters": 1975,
      "phic": 1976,
      "regions": 1977,
      "equal": 1978,
      "ently": 1979,
      "liver": 1980,
      "commun": 1981,
      "rial": 1982,
      "plane": 1983,
      "good": 1984,
      "ocytes": 1985,
      "cataly": 1986,
      "damage": 1987,
      "ken": 1988,
      "total": 1989,
      "habit": 1990,
      "16": 1991,
      "dri": 1992,
      "home": 1993,
      "mit": 1994,
      "lium": 1995,
      "joints": 1996,
      "reflec": 1997,
      "25": 1998,
      "mem": 1999,
      "nature": 2000,
      "deep": 2001,
      "oty": 2002,
      "paras": 2003,
      "indic": 2004,
      "individuals": 2005,
      "embryo": 2006,
      "climate": 2007,
      "RL": 2008,
      "pan": 2009,
      "sil": 2010,
      "rema": 2011,
      "lied": 2012,
      "tric": 2013,
      "haploid": 2014,
      "close": 2015,
      "sequence": 2016,
      "carbohydrates": 2017,
      "toward": 2018,
      "moder": 2019,
      "lymph": 2020,
      "brium": 2021,
      "worms": 2022,
      "resulting": 2023,
      "neutral": 2024,
      "rays": 2025,
      "thus": 2026,
      "room": 2027,
      "omen": 2028,
      "neutrons": 2029,
      "dissolved": 2030,
      "begins": 2031,
      "behavior": 2032,
      "provides": 2033,
      "aqu": 2034,
      "lic": 2035,
      "oto": 2036,
      "pur": 2037,
      "saturated": 2038,
      "ods": 2039,
      "obic": 2040,
      "following": 2041,
      "URL": 2042,
      "ball": 2043,
      "atter": 2044,
      "exchange": 2045,
      "containing": 2046,
      "versity": 2047,
      "TP": 2048,
      "diag": 2049,
      "organelles": 2050,
      "create": 2051,
      "flows": 2052,
      "consist": 2053,
      "sexual": 2054,
      "auto": 2055,
      "pattern": 2056,
      "fossil": 2057,
      "11": 2058,
      "adi": 2059,
      "ie": 2060,
      "pha": 2061,
      "inct": 2062,
      "entire": 2063,
      "extre": 2064,
      "commonly": 2065,
      "passes": 2066,
      "arteries": 2067,
      "million": 2068,
      "classified": 2069,
      "St": 2070,
      "bot": 2071,
      "hand": 2072,
      "sac": 2073,
      "whe": 2074,
      "toch": 2075,
      "making": 2076,
      "influ": 2077,
      "det": 2078,
      "ochemical": 2079,
      "undergo": 2080,
      "double": 2081,
      "Sy": 2082,
      "bility": 2083,
      "dro": 2084,
      "find": 2085,
      "suc": 2086,
      "chains": 2087,
      "excess": 2088,
      "block": 2089,
      "center": 2090,
      "effects": 2091,
      "required": 2092,
      "quickly": 2093,
      "return": 2094,
      "child": 2095,
      "dev": 2096,
      "formula": 2097,
      "arily": 2098,
      "pull": 2099,
      "understand": 2100,
      "So": 2101,
      "gam": 2102,
      "king": 2103,
      "points": 2104,
      "necessary": 2105,
      "22": 2106,
      "mouth": 2107,
      "tors": 2108,
      "iling": 2109,
      "rather": 2110,
      "various": 2111,
      "buil": 2112,
      "controlled": 2113,
      "describe": 2114,
      "ilibrium": 2115,
      "begin": 2116,
      "lens": 2117,
      "cere": 2118,
      "cytoplasm": 2119,
      "moment": 2120,
      "pure": 2121,
      "earthqu": 2122,
      "respiratory": 2123,
      "Hy": 2124,
      "hard": 2125,
      "igh": 2126,
      "thick": 2127,
      "vec": 2128,
      "feature": 2129,
      "early": 2130,
      "general": 2131,
      "longer": 2132,
      "lipids": 2133,
      "survive": 2134,
      "cartilage": 2135,
      "amounts": 2136,
      "resh": 2137,
      "others": 2138,
      "cipit": 2139,
      "vidence": 2140,
      "shaped": 2141,
      "After": 2142,
      "ATP": 2143,
      "By": 2144,
      "He": 2145,
      "solids": 2146,
      "zyg": 2147,
      "measured": 2148,
      "enzyme": 2149,
      "picture": 2150,
      "remains": 2151,
      "Ar": 2152,
      "fam": 2153,
      "push": 2154,
      "spor": 2155,
      "quanti": 2156,
      "mainly": 2157,
      "determine": 2158,
      "reactants": 2159,
      "scale": 2160,
      "person": 2161,
      "thalam": 2162,
      "ences": 2163,
      "icals": 2164,
      "acchar": 2165,
      "pose": 2166,
      "product": 2167,
      "astes": 2168,
      "13": 2169,
      "host": 2170,
      "muc": 2171,
      "adv": 2172,
      "largest": 2173,
      "friction": 2174,
      "broken": 2175,
      "resources": 2176,
      "17": 2177,
      "lat": 2178,
      "zo": 2179,
      "seen": 2180,
      "selection": 2181,
      "trig": 2182,
      "umn": 2183,
      "rag": 2184,
      "volt": 2185,
      "charges": 2186,
      "equilibrium": 2187,
      "Therefore": 2188,
      "stars": 2189,
      "Although": 2190,
      "ecosystem": 2191,
      "sensory": 2192,
      "Scientists": 2193,
      "tech": 2194,
      "urine": 2195,
      "external": 2196,
      "ceptors": 2197,
      "vary": 2198,
      "poster": 2199,
      "mei": 2200,
      "duction": 2201,
      "lustr": 2202,
      "nerves": 2203,
      "virus": 2204,
      "variety": 2205,
      "protists": 2206,
      "hom": 2207,
      "inant": 2208,
      "asis": 2209,
      "ective": 2210,
      "diversity": 2211,
      "seeds": 2212,
      "kidneys": 2213,
      "event": 2214,
      "illustr": 2215,
      "presence": 2216,
      "secrete": 2217,
      "behaviors": 2218,
      "wavelengths": 2219,
      "posterior": 2220,
      "Re": 2221,
      "cross": 2222,
      "ibi": 2223,
      "men": 2224,
      "vores": 2225,
      "complete": 2226,
      "absorbed": 2227,
      "pairs": 2228,
      "eukaryotic": 2229,
      "fuels": 2230,
      "globin": 2231,
      "model": 2232,
      "aw": 2233,
      "bases": 2234,
      "inte": 2235,
      "rese": 2236,
      "root": 2237,
      "iden": 2238,
      "collec": 2239,
      "ificant": 2240,
      "fatty": 2241,
      "easily": 2242,
      "www": 2243,
      "excre": 2244,
      "added": 2245,
      "obtain": 2246,
      "vertebral": 2247,
      "microsco": 2248,
      "ecosystems": 2249,
      "Na": 2250,
      "evidence": 2251,
      "tar": 2252,
      "moved": 2253,
      "amples": 2254,
      "iments": 2255,
      "renal": 2256,
      "epi": 2257,
      "carries": 2258,
      "tus": 2259,
      "conside": 2260,
      "pepti": 2261,
      "protect": 2262,
      "crust": 2263,
      "little": 2264,
      "considered": 2265,
      "fuse": 2266,
      "mature": 2267,
      "zed": 2268,
      "thin": 2269,
      "attract": 2270,
      "heter": 2271,
      "skeletal": 2272,
      "attached": 2273,
      "meiosis": 2274,
      "ata": 2275,
      "isoto": 2276,
      "forming": 2277,
      "chemicals": 2278,
      "flower": 2279,
      "treat": 2280,
      "thalamus": 2281,
      "Ad": 2282,
      "fission": 2283,
      "lose": 2284,
      "ills": 2285,
      "equation": 2286,
      "factor": 2287,
      "signal": 2288,
      "mechanical": 2289,
      "uterus": 2290,
      "30": 2291,
      "gain": 2292,
      "pu": 2293,
      "oder": 2294,
      "Why": 2295,
      "solvent": 2296,
      "should": 2297,
      "endocrine": 2298,
      "series": 2299,
      "signals": 2300,
      "significant": 2301,
      "periodic": 2302,
      "trees": 2303,
      "alleles": 2304,
      "oxidation": 2305,
      "modern": 2306,
      "identical": 2307,
      "big": 2308,
      "inher": 2309,
      "endo": 2310,
      "roots": 2311,
      "conser": 2312,
      "cover": 2313,
      "relative": 2314,
      "100": 2315,
      "Sol": 2316,
      "tox": 2317,
      "veins": 2318,
      "ird": 2319,
      "increasing": 2320,
      "mineral": 2321,
      "aer": 2322,
      "fresh": 2323,
      "gus": 2324,
      "repti": 2325,
      "arrow": 2326,
      "tose": 2327,
      "lia": 2328,
      "changing": 2329,
      "biochemical": 2330,
      "smallest": 2331,
      "transmit": 2332,
      "liquids": 2333,
      "fuel": 2334,
      "Plants": 2335,
      "Fo": 2336,
      "ian": 2337,
      "las": 2338,
      "pel": 2339,
      "som": 2340,
      "toms": 2341,
      "adult": 2342,
      "column": 2343,
      "releases": 2344,
      "radioactive": 2345,
      "capillaries": 2346,
      "voltage": 2347,
      "artic": 2348,
      "diploid": 2349,
      "useful": 2350,
      "require": 2351,
      "component": 2352,
      "phosph": 2353,
      "24": 2354,
      "foc": 2355,
      "harm": 2356,
      "thor": 2357,
      "repe": 2358,
      "truc": 2359,
      "supply": 2360,
      "decreases": 2361,
      "pollution": 2362,
      "har": 2363,
      "tum": 2364,
      "isms": 2365,
      "ication": 2366,
      "seg": 2367,
      "contri": 2368,
      "actually": 2369,
      "property": 2370,
      "hold": 2371,
      "fac": 2372,
      "mac": 2373,
      "since": 2374,
      "receptors": 2375,
      "diffusion": 2376,
      "ending": 2377,
      "created": 2378,
      "chloride": 2379,
      "dependent": 2380,
      "dry": 2381,
      "lines": 2382,
      "war": 2383,
      "zing": 2384,
      "allo": 2385,
      "mother": 2386,
      "utes": 2387,
      "chemistry": 2388,
      "interactions": 2389,
      "generation": 2390,
      "circuit": 2391,
      "Two": 2392,
      "ially": 2393,
      "wastes": 2394,
      "condition": 2395,
      "calcul": 2396,
      "biological": 2397,
      "viruses": 2398,
      "surfaces": 2399,
      "adapt": 2400,
      "milk": 2401,
      "approxim": 2402,
      "Organ": 2403,
      "lands": 2404,
      "tely": 2405,
      "stri": 2406,
      "ques": 2407,
      "boiling": 2408,
      "foods": 2409,
      "simpl": 2410,
      "ventric": 2411,
      "describes": 2412,
      "hypothe": 2413,
      "resistance": 2414,
      "against": 2415,
      "De": 2416,
      "mant": 2417,
      "tak": 2418,
      "inj": 2419,
      "cop": 2420,
      "balance": 2421,
      "happen": 2422,
      "blu": 2423,
      "lab": 2424,
      "ron": 2425,
      "motor": 2426,
      "consum": 2427,
      "lot": 2428,
      "mutation": 2429,
      "allele": 2430,
      "connected": 2431,
      "insects": 2432,
      "ibians": 2433,
      "onom": 2434,
      "true": 2435,
      "pollen": 2436,
      "xy": 2437,
      "prokaryotes": 2438,
      "ribo": 2439,
      "gram": 2440,
      "Energy": 2441,
      "Bi": 2442,
      "dead": 2443,
      "Thus": 2444,
      "aryn": 2445,
      "five": 2446,
      "sometimes": 2447,
      "nucleoti": 2448,
      "completely": 2449,
      "effici": 2450,
      "flat": 2451,
      "named": 2452,
      "smooth": 2453,
      "flex": 2454,
      "ived": 2455,
      "swe": 2456,
      "ellular": 2457,
      "ket": 2458,
      "producing": 2459,
      "plasts": 2460,
      "secondary": 2461,
      "filled": 2462,
      "explain": 2463,
      "ired": 2464,
      "ales": 2465,
      "ash": 2466,
      "asex": 2467,
      "acu": 2468,
      "fetus": 2469,
      "core": 2470,
      "ago": 2471,
      "avail": 2472,
      "crystal": 2473,
      "acceleration": 2474,
      "tim": 2475,
      "icles": 2476,
      "lial": 2477,
      "gets": 2478,
      "pher": 2479,
      "six": 2480,
      "clou": 2481,
      "determined": 2482,
      "restrial": 2483,
      "orders": 2484,
      "multiple": 2485,
      "floor": 2486,
      "problems": 2487,
      "ied": 2488,
      "ches": 2489,
      "ghter": 2490,
      "net": 2491,
      "ria": 2492,
      "creates": 2493,
      "ostasis": 2494,
      "developed": 2495,
      "build": 2496,
      "collis": 2497,
      "bol": 2498,
      "face": 2499,
      "reason": 2500,
      "tom": 2501,
      "veol": 2502,
      "composition": 2503,
      "mostly": 2504,
      "Anim": 2505,
      "chloro": 2506,
      "decrease": 2507,
      "connective": 2508,
      "bil": 2509,
      "cro": 2510,
      "watch": 2511,
      "angi": 2512,
      "astic": 2513,
      "stren": 2514,
      "ull": 2515,
      "spores": 2516,
      "irr": 2517,
      "glass": 2518,
      "increased": 2519,
      "melting": 2520,
      "conf": 2521,
      "exposed": 2522,
      "structur": 2523,
      "value": 2524,
      "precipit": 2525,
      "refers": 2526,
      "predic": 2527,
      "meaning": 2528,
      "Since": 2529,
      "wide": 2530,
      "altern": 2531,
      "ouse": 2532,
      "perform": 2533,
      "meters": 2534,
      "causing": 2535,
      "therefore": 2536,
      "masses": 2537,
      "ficial": 2538,
      "combine": 2539,
      "kidney": 2540,
      "zer": 2541,
      "ammon": 2542,
      "distri": 2543,
      "sulfur": 2544,
      "synthetic": 2545,
      "separated": 2546,
      "uitary": 2547,
      "Carbon": 2548,
      "dest": 2549,
      "dark": 2550,
      "lation": 2551,
      "mentation": 2552,
      "contact": 2553,
      "interact": 2554,
      "tail": 2555,
      "sperms": 2556,
      "populations": 2557,
      "encies": 2558,
      "slowly": 2559,
      "health": 2560,
      "hydrocarbons": 2561,
      "50": 2562,
      "che": 2563,
      "ration": 2564,
      "sand": 2565,
      "sense": 2566,
      "ug": 2567,
      "ices": 2568,
      "else": 2569,
      "chrom": 2570,
      "lost": 2571,
      "cohol": 2572,
      "fication": 2573,
      "tub": 2574,
      "infec": 2575,
      "travels": 2576,
      "piec": 2577,
      "attraction": 2578,
      "success": 2579,
      "reptiles": 2580,
      "tas": 2581,
      "wr": 2582,
      "ought": 2583,
      "ample": 2584,
      "lood": 2585,
      "differences": 2586,
      "agell": 2587,
      "Another": 2588,
      "decom": 2589,
      "princ": 2590,
      "dominant": 2591,
      "pituitary": 2592,
      "further": 2593,
      "crystals": 2594,
      "expressed": 2595,
      "diagram": 2596,
      "tun": 2597,
      "ues": 2598,
      "erup": 2599,
      "alveol": 2600,
      "super": 2601,
      "among": 2602,
      "hibit": 2603,
      "movements": 2604,
      "soluble": 2605,
      "orbitals": 2606,
      "Cells": 2607,
      "hemoglobin": 2608,
      "image": 2609,
      "momentum": 2610,
      "blue": 2611,
      "streng": 2612,
      "Des": 2613,
      "Res": 2614,
      "apart": 2615,
      "rich": 2616,
      "ysis": 2617,
      "thought": 2618,
      "amph": 2619,
      "contr": 2620,
      "emp": 2621,
      "differ": 2622,
      "vities": 2623,
      "clear": 2624,
      "discus": 2625,
      "don": 2626,
      "mally": 2627,
      "squ": 2628,
      "ali": 2629,
      "had": 2630,
      "upper": 2631,
      "needs": 2632,
      "combination": 2633,
      "frequencies": 2634,
      "converted": 2635,
      "Bacter": 2636,
      "Blood": 2637,
      "og": 2638,
      "sin": 2639,
      "tension": 2640,
      "ener": 2641,
      "step": 2642,
      "chap": 2643,
      "diet": 2644,
      "contract": 2645,
      "essential": 2646,
      "adul": 2647,
      "store": 2648,
      "oceans": 2649,
      "universe": 2650,
      "section": 2651,
      "opening": 2652,
      "destro": 2653,
      "mount": 2654,
      "winds": 2655,
      "thous": 2656,
      "atin": 2657,
      "itself": 2658,
      "share": 2659,
      "diffic": 2660,
      "colon": 2661,
      "osmo": 2662,
      "flowers": 2663,
      "absor": 2664,
      "graph": 2665,
      "primarily": 2666,
      "sources": 2667,
      "Examples": 2668,
      "applied": 2669,
      "mantle": 2670,
      "Chemical": 2671,
      "Se": 2672,
      "del": 2673,
      "enta": 2674,
      "divide": 2675,
      "changed": 2676,
      "rect": 2677,
      "fraction": 2678,
      "grad": 2679,
      "Co": 2680,
      "Met": 2681,
      "dle": 2682,
      "eth": 2683,
      "fly": 2684,
      "pati": 2685,
      "zes": 2686,
      "monary": 2687,
      "view": 2688,
      "transcri": 2689,
      "leaf": 2690,
      "solutions": 2691,
      "aquatic": 2692,
      "bottom": 2693,
      "accharides": 2694,
      "approximately": 2695,
      "cod": 2696,
      "fund": 2697,
      "kil": 2698,
      "rati": 2699,
      "uits": 2700,
      "instead": 2701,
      "tile": 2702,
      "ational": 2703,
      "having": 2704,
      "biomes": 2705,
      "ished": 2706,
      "requires": 2707,
      "origin": 2708,
      "original": 2709,
      "homeostasis": 2710,
      "aerobic": 2711,
      "structural": 2712,
      "Fun": 2713,
      "Rec": 2714,
      "cour": 2715,
      "hist": 2716,
      "house": 2717,
      "last": 2718,
      "espec": 2719,
      "almost": 2720,
      "ories": 2721,
      "lets": 2722,
      "start": 2723,
      "static": 2724,
      "trum": 2725,
      "betes": 2726,
      "depos": 2727,
      "mitoch": 2728,
      "ologists": 2729,
      "rises": 2730,
      "sexually": 2731,
      "transferred": 2732,
      "features": 2733,
      "available": 2734,
      "especially": 2735,
      "coun": 2736,
      "past": 2737,
      "vacu": 2738,
      "alcohol": 2739,
      "orts": 2740,
      "itude": 2741,
      "bet": 2742,
      "carb": 2743,
      "agin": 2744,
      "allowing": 2745,
      "closed": 2746,
      "ocytosis": 2747,
      "hypothalamus": 2748,
      "osphere": 2749,
      "tel": 2750,
      "wi": 2751,
      "infer": 2752,
      "thems": 2753,
      "replic": 2754,
      "helium": 2755,
      "stages": 2756,
      "elves": 2757,
      "prokaryotic": 2758,
      "cons": 2759,
      "something": 2760,
      "poles": 2761,
      "fruit": 2762,
      "growing": 2763,
      "involve": 2764,
      "regulate": 2765,
      "pictured": 2766,
      "strength": 2767,
      "themselves": 2768,
      "gradi": 2769,
      "ier": 2770,
      "ole": 2771,
      "tree": 2772,
      "ulose": 2773,
      "spon": 2774,
      "othermic": 2775,
      "cury": 2776,
      "chann": 2777,
      "via": 2778,
      "generate": 2779,
      "mitosis": 2780,
      "eukaryotes": 2781,
      "insulin": 2782,
      "pancre": 2783,
      "his": 2784,
      "reco": 2785,
      "orph": 2786,
      "consu": 2787,
      "fibro": 2788,
      "osion": 2789,
      "vertebrae": 2790,
      "arrang": 2791,
      "extrem": 2792,
      "Dif": 2793,
      "batter": 2794,
      "cup": 2795,
      "den": 2796,
      "lac": 2797,
      "pig": 2798,
      "removed": 2799,
      "roid": 2800,
      "otro": 2801,
      "tered": 2802,
      "colors": 2803,
      "vibr": 2804,
      "genesis": 2805,
      "Unlike": 2806,
      "phenoty": 2807,
      "phenomen": 2808,
      "galax": 2809,
      "zygote": 2810,
      "contrast": 2811,
      "21": 2812,
      "fro": 2813,
      "ynam": 2814,
      "third": 2815,
      "answ": 2816,
      "epider": 2817,
      "highly": 2818,
      "aneous": 2819,
      "trophs": 2820,
      "eyes": 2821,
      "detect": 2822,
      "illustrated": 2823,
      "epithe": 2824,
      "destroy": 2825,
      "extremely": 2826,
      "lus": 2827,
      "aring": 2828,
      "trap": 2829,
      "experi": 2830,
      "ress": 2831,
      "trop": 2832,
      "placenta": 2833,
      "assive": 2834,
      "diabetes": 2835,
      "recei": 2836,
      "advant": 2837,
      "fundam": 2838,
      "better": 2839,
      "Can": 2840,
      "cort": 2841,
      "evapor": 2842,
      "nas": 2843,
      "narrow": 2844,
      "sample": 2845,
      "held": 2846,
      "stu": 2847,
      "terrestrial": 2848,
      "spher": 2849,
      "loop": 2850,
      "clos": 2851,
      "solubility": 2852,
      "risk": 2853,
      "bonded": 2854,
      "chapter": 2855,
      "Be": 2856,
      "aight": 2857,
      "aque": 2858,
      "real": 2859,
      "cho": 2860,
      "chy": 2861,
      "death": 2862,
      "straight": 2863,
      "breath": 2864,
      "extinc": 2865,
      "medium": 2866,
      "nonmetals": 2867,
      "lateral": 2868,
      "Electr": 2869,
      "phosphate": 2870,
      "dense": 2871,
      "pain": 2872,
      "input": 2873,
      "terms": 2874,
      "phil": 2875,
      "bonding": 2876,
      "disper": 2877,
      "earli": 2878,
      "oste": 2879,
      "develops": 2880,
      "critical": 2881,
      "ceptor": 2882,
      "normally": 2883,
      "holip": 2884,
      "sterone": 2885,
      "fields": 2886,
      "reduced": 2887,
      "artery": 2888,
      "bably": 2889,
      "research": 2890,
      "thousands": 2891,
      "Pho": 2892,
      "cin": 2893,
      "dau": 2894,
      "fill": 2895,
      "faster": 2896,
      "uli": 2897,
      "iner": 2898,
      "inary": 2899,
      "Their": 2900,
      "pole": 2901,
      "cycl": 2902,
      "biology": 2903,
      "magnit": 2904,
      "pulmonary": 2905,
      "tracellular": 2906,
      "environments": 2907,
      "celled": 2908,
      "volcanoes": 2909,
      "hypothesis": 2910,
      "blow": 2911,
      "cases": 2912,
      "mig": 2913,
      "brid": 2914,
      "container": 2915,
      "regular": 2916,
      "fluids": 2917,
      "skull": 2918,
      "gameto": 2919,
      "fixed": 2920,
      "famili": 2921,
      "CH": 2922,
      "gn": 2923,
      "gies": 2924,
      "mess": 2925,
      "oper": 2926,
      "oids": 2927,
      "site": 2928,
      "thro": 2929,
      "abund": 2930,
      "spectrum": 2931,
      "colysis": 2932,
      "perior": 2933,
      "protects": 2934,
      "full": 2935,
      "condens": 2936,
      "activ": 2937,
      "middle": 2938,
      "whether": 2939,
      "amphibians": 2940,
      "fundamental": 2941,
      "daughter": 2942,
      "iel": 2943,
      "vesti": 2944,
      "Instead": 2945,
      "magma": 2946,
      "functional": 2947,
      "rapidly": 2948,
      "consider": 2949,
      "Phy": 2950,
      "cut": 2951,
      "ious": 2952,
      "ips": 2953,
      "ns": 2954,
      "rup": 2955,
      "sl": 2956,
      "tivity": 2957,
      "asp": 2958,
      "dim": 2959,
      "probably": 2960,
      "posure": 2961,
      "hyper": 2962,
      "basis": 2963,
      "sugars": 2964,
      "parents": 2965,
      "observed": 2966,
      "planets": 2967,
      "arynx": 2968,
      "II": 2969,
      "dna": 2970,
      "ru": 2971,
      "rig": 2972,
      "org": 2973,
      "phal": 2974,
      "front": 2975,
      "breaks": 2976,
      "fats": 2977,
      "difficult": 2978,
      "Light": 2979,
      "fit": 2980,
      "hind": 2981,
      "sit": 2982,
      "sess": 2983,
      "say": 2984,
      "renew": 2985,
      "emit": 2986,
      "rome": 2987,
      "redit": 2988,
      "fract": 2989,
      "sediment": 2990,
      "controls": 2991,
      "blad": 2992,
      "flagell": 2993,
      "phospholip": 2994,
      "burning": 2995,
      "ancest": 2996,
      "building": 2997,
      "inferior": 2998,
      "cortex": 2999,
      "bur": 3000,
      "oks": 3001,
      "pack": 3002,
      "youn": 3003,
      "hea": 3004,
      "acic": 3005,
      "diver": 3006,
      "key": 3007,
      "applic": 3008,
      "izing": 3009,
      "word": 3010,
      "derived": 3011,
      "developing": 3012,
      "distinct": 3013,
      "north": 3014,
      "salts": 3015,
      "environmental": 3016,
      "ropods": 3017,
      "angle": 3018,
      "surrounded": 3019,
      "represented": 3020,
      "cardiac": 3021,
      "experiment": 3022,
      "silic": 3023,
      "New": 3024,
      "fast": 3025,
      "jac": 3026,
      "simp": 3027,
      "inn": 3028,
      "once": 3029,
      "ison": 3030,
      "sus": 3031,
      "superior": 3032,
      "While": 3033,
      "endel": 3034,
      "entially": 3035,
      "trait": 3036,
      "grows": 3037,
      "affected": 3038,
      "females": 3039,
      "orbital": 3040,
      "circulatory": 3041,
      "mitochond": 3042,
      "magnitude": 3043,
      "Per": 3044,
      "bill": 3045,
      "sof": 3046,
      "analy": 3047,
      "icular": 3048,
      "plates": 3049,
      "log": 3050,
      "compe": 3051,
      "magnet": 3052,
      "respond": 3053,
      "reduction": 3054,
      "Prote": 3055,
      "precipitation": 3056,
      "absorption": 3057,
      "epidermis": 3058,
      "Eu": 3059,
      "athe": 3060,
      "nology": 3061,
      "arks": 3062,
      "die": 3063,
      "proj": 3064,
      "impul": 3065,
      "synap": 3066,
      "goes": 3067,
      "limited": 3068,
      "variation": 3069,
      "determines": 3070,
      "arranged": 3071,
      "zero": 3072,
      "transcription": 3073,
      "ratio": 3074,
      "care": 3075,
      "data": 3076,
      "pon": 3077,
      "rad": 3078,
      "isol": 3079,
      "promo": 3080,
      "proportion": 3081,
      "bron": 3082,
      "ideal": 3083,
      "acidic": 3084,
      "transi": 3085,
      "currents": 3086,
      "location": 3087,
      "characterized": 3088,
      "majority": 3089,
      "thyl": 3090,
      "macro": 3091,
      "simplest": 3092,
      "Pe": 3093,
      "winter": 3094,
      "receptor": 3095,
      "heated": 3096,
      "omers": 3097,
      "odes": 3098,
      "add": 3099,
      "coal": 3100,
      "bio": 3101,
      "phylum": 3102,
      "bacterial": 3103,
      "continue": 3104,
      "attack": 3105,
      "lipid": 3106,
      "expression": 3107,
      "swim": 3108,
      "bution": 3109,
      "clu": 3110,
      "oy": 3111,
      "ork": 3112,
      "elastic": 3113,
      "disorders": 3114,
      "sali": 3115,
      "infection": 3116,
      "evolutionary": 3117,
      "multicellular": 3118,
      "global": 3119,
      "falls": 3120,
      "stimulates": 3121,
      "glyco": 3122,
      "sporophy": 3123,
      "eventually": 3124,
      "target": 3125,
      "thoracic": 3126,
      "gametophy": 3127,
      "did": 3128,
      "raw": 3129,
      "ference": 3130,
      "hydrox": 3131,
      "cording": 3132,
      "peripher": 3133,
      "capac": 3134,
      "affects": 3135,
      "predators": 3136,
      "earthquake": 3137,
      "taste": 3138,
      "princi": 3139,
      "Bacteria": 3140,
      "Dis": 3141,
      "bic": 3142,
      "figure": 3143,
      "pal": 3144,
      "slight": 3145,
      "south": 3146,
      "sup": 3147,
      "cham": 3148,
      "lying": 3149,
      "plain": 3150,
      "exact": 3151,
      "genetically": 3152,
      "placement": 3153,
      "steps": 3154,
      "reduce": 3155,
      "initi": 3156,
      "27": 3157,
      "Nucle": 3158,
      "Of": 3159,
      "Ty": 3160,
      "rings": 3161,
      "wid": 3162,
      "today": 3163,
      "proto": 3164,
      "ilit": 3165,
      "stems": 3166,
      "ended": 3167,
      "thane": 3168,
      "nucleic": 3169,
      "physics": 3170,
      "secretion": 3171,
      "anced": 3172,
      "ensive": 3173,
      "chloroplasts": 3174,
      "gradient": 3175,
      "answer": 3176,
      "Pol": 3177,
      "Spec": 3178,
      "days": 3179,
      "hund": 3180,
      "pen": 3181,
      "erosion": 3182,
      "spont": 3183,
      "unc": 3184,
      "ury": 3185,
      "reactive": 3186,
      "symbol": 3187,
      "dissolve": 3188,
      "cerebr": 3189,
      "renewable": 3190,
      "Gra": 3191,
      "Mendel": 3192,
      "bow": 3193,
      "exists": 3194,
      "cytes": 3195,
      "muscular": 3196,
      "stim": 3197,
      "concentrations": 3198,
      "antigen": 3199,
      "nivores": 3200,
      "metabolic": 3201,
      "metabolism": 3202,
      "Human": 3203,
      "Animals": 3204,
      "extinction": 3205,
      "Over": 3206,
      "cu": 3207,
      "gon": 3208,
      "ored": 3209,
      "induc": 3210,
      "moon": 3211,
      "amni": 3212,
      "extra": 3213,
      "except": 3214,
      "ables": 3215,
      "cycles": 3216,
      "prey": 3217,
      "breaking": 3218,
      "naturally": 3219,
      "lung": 3220,
      "marine": 3221,
      "observ": 3222,
      "problem": 3223,
      "linked": 3224,
      "peptide": 3225,
      "adults": 3226,
      "course": 3227,
      "credit": 3228,
      "events": 3229,
      "ju": 3230,
      "lakes": 3231,
      "mirr": 3232,
      "prec": 3233,
      "ral": 3234,
      "rid": 3235,
      "invertebrates": 3236,
      "repres": 3237,
      "erous": 3238,
      "lysis": 3239,
      "spin": 3240,
      "cellulose": 3241,
      "ads": 3242,
      "differenti": 3243,
      "serve": 3244,
      "divides": 3245,
      "digest": 3246,
      "fully": 3247,
      "neuron": 3248,
      "nearly": 3249,
      "additional": 3250,
      "millions": 3251,
      "contractions": 3252,
      "toxic": 3253,
      "focus": 3254,
      "26": 3255,
      "du": 3256,
      "dan": 3257,
      "rare": 3258,
      "tell": 3259,
      "thetic": 3260,
      "ann": 3261,
      "isted": 3262,
      "plays": 3263,
      "exposure": 3264,
      "abnormal": 3265,
      "lowest": 3266,
      "possess": 3267,
      "members": 3268,
      "isotopes": 3269,
      "recogn": 3270,
      "mitochondria": 3271,
      "From": 3272,
      "H2": 3273,
      "mRNA": 3274,
      "olet": 3275,
      "sat": 3276,
      "omer": 3277,
      "aments": 3278,
      "fetal": 3279,
      "rix": 3280,
      "solutes": 3281,
      "wee": 3282,
      "compared": 3283,
      "overall": 3284,
      "vertebrate": 3285,
      "video": 3286,
      "explains": 3287,
      "embryonic": 3288,
      "constantly": 3289,
      "carried": 3290,
      "barri": 3291,
      "blocks": 3292,
      "mucus": 3293,
      "alveoli": 3294,
      "pancreas": 3295,
      "advantage": 3296,
      "spheric": 3297,
      "Bir": 3298,
      "Tr": 3299,
      "gu": 3300,
      "pend": 3301,
      "ym": 3302,
      "chord": 3303,
      "ellow": 3304,
      "allic": 3305,
      "producers": 3306,
      "sive": 3307,
      "discovered": 3308,
      "matrix": 3309,
      "males": 3310,
      "tingu": 3311,
      "ologous": 3312,
      "typical": 3313,
      "wood": 3314,
      "whole": 3315,
      "CO2": 3316,
      "heterotro": 3317,
      "infections": 3318,
      "tropical": 3319,
      "nasal": 3320,
      "Nor": 3321,
      "Sim": 3322,
      "dem": 3323,
      "eating": 3324,
      "ozone": 3325,
      "sounds": 3326,
      "ening": 3327,
      "legs": 3328,
      "tition": 3329,
      "tice": 3330,
      "lif": 3331,
      "genome": 3332,
      "actin": 3333,
      "violet": 3334,
      "aged": 3335,
      "glac": 3336,
      "berty": 3337,
      "osa": 3338,
      "neuro": 3339,
      "ready": 3340,
      "leads": 3341,
      "depending": 3342,
      "expand": 3343,
      "More": 3344,
      "relationships": 3345,
      "boundaries": 3346,
      "cardio": 3347,
      "abundant": 3348,
      "danger": 3349,
      "Cy": 3350,
      "port": 3351,
      "slo": 3352,
      "rever": 3353,
      "reverse": 3354,
      "although": 3355,
      "umin": 3356,
      "feet": 3357,
      "oneg": 3358,
      "volution": 3359,
      "magn": 3360,
      "medic": 3361,
      "black": 3362,
      "machine": 3363,
      "conductors": 3364,
      "cools": 3365,
      "contraction": 3366,
      "pump": 3367,
      "taken": 3368,
      "clouds": 3369,
      "carboxy": 3370,
      "arrangement": 3371,
      "familiar": 3372,
      "simply": 3373,
      "200": 3374,
      "done": 3375,
      "lam": 3376,
      "pt": 3377,
      "ray": 3378,
      "atri": 3379,
      "esco": 3380,
      "iting": 3381,
      "sures": 3382,
      "chi": 3383,
      "lig": 3384,
      "pores": 3385,
      "partial": 3386,
      "fungus": 3387,
      "directions": 3388,
      "places": 3389,
      "conduct": 3390,
      "learning": 3391,
      "glycolysis": 3392,
      "ophyll": 3393,
      "zoa": 3394,
      "history": 3395,
      "breathing": 3396,
      "Di": 3397,
      "eps": 3398,
      "fa": 3399,
      "fing": 3400,
      "iod": 3401,
      "pene": 3402,
      "isp": 3403,
      "tosterone": 3404,
      "height": 3405,
      "amins": 3406,
      "ammal": 3407,
      "behind": 3408,
      "thern": 3409,
      "aller": 3410,
      "ledge": 3411,
      "disorder": 3412,
      "izes": 3413,
      "highest": 3414,
      "transverse": 3415,
      "correct": 3416,
      "cribe": 3417,
      "carrying": 3418,
      "surrounding": 3419,
      "ovary": 3420,
      "healthy": 3421,
      "baby": 3422,
      "kingdom": 3423,
      "freshwater": 3424,
      "facilit": 3425,
      "ammonia": 3426,
      "stimuli": 3427,
      "cardiovascular": 3428,
      "Is": 3429,
      "bles": 3430,
      "best": 3431,
      "ced": 3432,
      "reat": 3433,
      "respec": 3434,
      "replaced": 3435,
      "tight": 3436,
      "heating": 3437,
      "ligam": 3438,
      "ustion": 3439,
      "dehyd": 3440,
      "compres": 3441,
      "shared": 3442,
      "design": 3443,
      "radius": 3444,
      "nonpolar": 3445,
      "resting": 3446,
      "appears": 3447,
      "Molec": 3448,
      "ovaries": 3449,
      "device": 3450,
      "quantity": 3451,
      "copper": 3452,
      "crops": 3453,
      "distribution": 3454,
      "bell": 3455,
      "code": 3456,
      "kill": 3457,
      "stic": 3458,
      "touch": 3459,
      "lives": 3460,
      "poor": 3461,
      "teeth": 3462,
      "shore": 3463,
      "ception": 3464,
      "variable": 3465,
      "bute": 3466,
      "continental": 3467,
      "broad": 3468,
      "Explain": 3469,
      "dissolves": 3470,
      "convert": 3471,
      "abolic": 3472,
      "Moon": 3473,
      "surroundings": 3474,
      "adapted": 3475,
      "shells": 3476,
      "born": 3477,
      "binding": 3478,
      "somal": 3479,
      "asexual": 3480,
      "Fungi": 3481,
      "fibrous": 3482,
      "soft": 3483,
      "Lo": 3484,
      "Mus": 3485,
      "sides": 3486,
      "ugh": 3487,
      "instr": 3488,
      "ica": 3489,
      "stress": 3490,
      "vere": 3491,
      "perme": 3492,
      "quite": 3493,
      "adrenal": 3494,
      "occup": 3495,
      "strat": 3496,
      "foot": 3497,
      "works": 3498,
      "photosynthetic": 3499,
      "assium": 3500,
      "thyroid": 3501,
      "classes": 3502,
      "capillary": 3503,
      "mediate": 3504,
      "lusks": 3505,
      "bladder": 3506,
      "transition": 3507,
      "penetr": 3508,
      "Cal": 3509,
      "Ver": 3510,
      "Wa": 3511,
      "hour": 3512,
      "kinds": 3513,
      "preg": 3514,
      "ptoms": 3515,
      "soc": 3516,
      "soci": 3517,
      "ths": 3518,
      "inorganic": 3519,
      "rose": 3520,
      "moist": 3521,
      "ampl": 3522,
      "uration": 3523,
      "strate": 3524,
      "fiber": 3525,
      "intro": 3526,
      "correspon": 3527,
      "spermat": 3528,
      "stret": 3529,
      "knowledge": 3530,
      "feedback": 3531,
      "pathetic": 3532,
      "Humans": 3533,
      "autotrophs": 3534,
      "earthquakes": 3535,
      "discussed": 3536,
      "young": 3537,
      "impulses": 3538,
      "Ca": 3539,
      "NO": 3540,
      "ugs": 3541,
      "yellow": 3542,
      "inoder": 3543,
      "tough": 3544,
      "oline": 3545,
      "entist": 3546,
      "choles": 3547,
      "terol": 3548,
      "unds": 3549,
      "ock": 3550,
      "organized": 3551,
      "distingu": 3552,
      "doesn": 3553,
      "tails": 3554,
      "combined": 3555,
      "neck": 3556,
      "said": 3557,
      "continues": 3558,
      "phenomenon": 3559,
      "jacent": 3560,
      "instrum": 3561,
      "40": 3562,
      "Ne": 3563,
      "Radi": 3564,
      "cran": 3565,
      "job": 3566,
      "kton": 3567,
      "ogene": 3568,
      "sions": 3569,
      "tory": 3570,
      "heav": 3571,
      "concept": 3572,
      "iration": 3573,
      "emer": 3574,
      "adjacent": 3575,
      "Then": 3576,
      "speci": 3577,
      "opha": 3578,
      "fruits": 3579,
      "scientist": 3580,
      "medical": 3581,
      "underground": 3582,
      "concentrated": 3583,
      "axis": 3584,
      "secreted": 3585,
      "reflex": 3586,
      "leading": 3587,
      "mercury": 3588,
      "fossils": 3589,
      "carbohydrate": 3590,
      "appearance": 3591,
      "habitat": 3592,
      "patterns": 3593,
      "wire": 3594,
      "Differen": 3595,
      "Photo": 3596,
      "Even": 3597,
      "rand": 3598,
      "inally": 3599,
      "abl": 3600,
      "netw": 3601,
      "methane": 3602,
      "keeps": 3603,
      "bloodstream": 3604,
      "bile": 3605,
      "trophic": 3606,
      "serves": 3607,
      "capable": 3608,
      "passed": 3609,
      "follic": 3610,
      "combustion": 3611,
      "filter": 3612,
      "symbiotic": 3613,
      "ocyte": 3614,
      "drugs": 3615,
      "Electro": 3616,
      "modification": 3617,
      "identify": 3618,
      "habitats": 3619,
      "homologous": 3620,
      "tubules": 3621,
      "Birds": 3622,
      "Oxy": 3623,
      "cise": 3624,
      "lining": 3625,
      "reds": 3626,
      "rounds": 3627,
      "ceed": 3628,
      "exhibit": 3629,
      "extracellular": 3630,
      "phases": 3631,
      "smell": 3632,
      "metallic": 3633,
      "values": 3634,
      "proton": 3635,
      "circular": 3636,
      "starts": 3637,
      "antibiotic": 3638,
      "laws": 3639,
      "polymer": 3640,
      "learned": 3641,
      "Once": 3642,
      "influence": 3643,
      "adaptations": 3644,
      "consumers": 3645,
      "nucleotides": 3646,
      "galaxies": 3647,
      "observations": 3648,
      "29": 3649,
      "Air": 3650,
      "Its": 3651,
      "Red": 3652,
      "Vir": 3653,
      "gold": 3654,
      "self": 3655,
      "win": 3656,
      "roles": 3657,
      "diame": 3658,
      "unt": 3659,
      "poison": 3660,
      "hybrid": 3661,
      "fermentation": 3662,
      "intermolecular": 3663,
      "words": 3664,
      "arthropods": 3665,
      "horiz": 3666,
      "breakdown": 3667,
      "pathway": 3668,
      "chlorine": 3669,
      "mark": 3670,
      "Only": 3671,
      "freezing": 3672,
      "resource": 3673,
      "images": 3674,
      "microscope": 3675,
      "decompos": 3676,
      "Describe": 3677,
      "peripheral": 3678,
      "60": 3679,
      "Fer": 3680,
      "Reg": 3681,
      "ffer": 3682,
      "osperms": 3683,
      "tants": 3684,
      "”)": 3685,
      "ality": 3686,
      "itis": 3687,
      "suff": 3688,
      "exc": 3689,
      "sized": 3690,
      "electroneg": 3691,
      "prepare": 3692,
      "activities": 3693,
      "locations": 3694,
      "modified": 3695,
      "inherited": 3696,
      "Recall": 3697,
      "channels": 3698,
      "rigid": 3699,
      "flagella": 3700,
      "sporophyte": 3701,
      "slightly": 3702,
      "28": 3703,
      "Cor": 3704,
      "Le": 3705,
      "Nit": 3706,
      "band": 3707,
      "fail": 3708,
      "vin": 3709,
      "vagin": 3710,
      "orter": 3711,
      "icate": 3712,
      "accur": 3713,
      "split": 3714,
      "never": 3715,
      "feel": 3716,
      "bring": 3717,
      "lute": 3718,
      "bird": 3719,
      "turns": 3720,
      "enced": 3721,
      "particularly": 3722,
      "ensional": 3723,
      "reaches": 3724,
      "circulation": 3725,
      "storage": 3726,
      "children": 3727,
      "vector": 3728,
      "chromat": 3729,
      "empty": 3730,
      "People": 3731,
      "inoderms": 3732,
      "ogeneous": 3733,
      "Gl": 3734,
      "Not": 3735,
      "Pres": 3736,
      "kes": 3737,
      "mers": 3738,
      "mammal": 3739,
      "snow": 3740,
      "tong": 3741,
      "atus": 3742,
      "alpha": 3743,
      "icle": 3744,
      "stay": 3745,
      "cones": 3746,
      "map": 3747,
      "maxim": 3748,
      "ureth": 3749,
      "ural": 3750,
      "pharynx": 3751,
      "formul": 3752,
      "oxides": 3753,
      "atest": 3754,
      "wet": 3755,
      "establ": 3756,
      "surrounds": 3757,
      "hip": 3758,
      "humid": 3759,
      "generated": 3760,
      "horus": 3761,
      "limbs": 3762,
      "activation": 3763,
      "marrow": 3764,
      "easier": 3765,
      "mechanisms": 3766,
      "methods": 3767,
      "experiments": 3768,
      "pumps": 3769,
      "devices": 3770,
      "lasts": 3771,
      "telesco": 3772,
      "represents": 3773,
      "satell": 3774,
      "Cha": 3775,
      "Par": 3776,
      "Vol": 3777,
      "ctic": 3778,
      "cence": 3779,
      "chemo": 3780,
      "fers": 3781,
      "iers": 3782,
      "late": 3783,
      "pri": 3784,
      "vo": 3785,
      "remove": 3786,
      "already": 3787,
      "stro": 3788,
      "itance": 3789,
      "omy": 3790,
      "sep": 3791,
      "veget": 3792,
      "ecto": 3793,
      "oded": 3794,
      "post": 3795,
      "cape": 3796,
      "vious": 3797,
      "psin": 3798,
      "testosterone": 3799,
      "prevents": 3800,
      "greatest": 3801,
      "stop": 3802,
      "stores": 3803,
      "complement": 3804,
      "evolve": 3805,
      "lava": 3806,
      "capture": 3807,
      "distances": 3808,
      "atmospheric": 3809,
      "regulation": 3810,
      "angular": 3811,
      "accum": 3812,
      "understanding": 3813,
      "lenses": 3814,
      "treatment": 3815,
      "onomic": 3816,
      "collisions": 3817,
      "demon": 3818,
      "cholesterol": 3819,
      "random": 3820,
      "diameter": 3821,
      "Tem": 3822,
      "frag": 3823,
      "hes": 3824,
      "nose": 3825,
      "ontal": 3826,
      "esopha": 3827,
      "titu": 3828,
      "elle": 3829,
      "selec": 3830,
      "severe": 3831,
      "vein": 3832,
      "beta": 3833,
      "ures": 3834,
      "therap": 3835,
      "abdom": 3836,
      "ducts": 3837,
      "river": 3838,
      "aseous": 3839,
      "cessive": 3840,
      "reacts": 3841,
      "destruc": 3842,
      "aea": 3843,
      "pathways": 3844,
      "ogens": 3845,
      "avoid": 3846,
      "followed": 3847,
      "standard": 3848,
      "paired": 3849,
      "identified": 3850,
      "gamma": 3851,
      "puberty": 3852,
      "pieces": 3853,
      "patient": 3854,
      "ynamics": 3855,
      "silicon": 3856,
      "principle": 3857,
      "hundreds": 3858,
      "pendicular": 3859,
      "stretch": 3860,
      "90": 3861,
      "Sur": 3862,
      "bum": 3863,
      "bits": 3864,
      "cate": 3865,
      "din": 3866,
      "eight": 3867,
      "fits": 3868,
      "junc": 3869,
      "lined": 3870,
      "yiel": 3871,
      "recent": 3872,
      "ongest": 3873,
      "entrop": 3874,
      "diverse": 3875,
      "abi": 3876,
      "canal": 3877,
      "perpendicular": 3878,
      "phrag": 3879,
      "ometers": 3880,
      "sight": 3881,
      "vesicles": 3882,
      "belong": 3883,
      "ativity": 3884,
      "contained": 3885,
      "animation": 3886,
      "forests": 3887,
      "protection": 3888,
      "allowed": 3889,
      "distur": 3890,
      "measures": 3891,
      "axon": 3892,
      "absorbs": 3893,
      "mechanism": 3894,
      "beneficial": 3895,
      "branches": 3896,
      "parasites": 3897,
      "collect": 3898,
      "isotope": 3899,
      "labor": 3900,
      "battery": 3901,
      "epithelial": 3902,
      "receives": 3903,
      "billion": 3904,
      "heavy": 3905,
      "tongue": 3906,
      "Ge": 3907,
      "Gas": 3908,
      "Hor": 3909,
      "Mic": 3910,
      "NS": 3911,
      "OH": 3912,
      "aut": 3913,
      "retin": 3914,
      "arbon": 3915,
      "unstable": 3916,
      "ably": 3917,
      "phot": 3918,
      "meter": 3919,
      "shorter": 3920,
      "upon": 3921,
      "clean": 3922,
      "occurring": 3923,
      "mata": 3924,
      "tempor": 3925,
      "closer": 3926,
      "grass": 3927,
      "antibodies": 3928,
      "brow": 3929,
      "binds": 3930,
      "burns": 3931,
      "connect": 3932,
      "paper": 3933,
      "greenhouse": 3934,
      "weathering": 3935,
      "vection": 3936,
      "harmful": 3937,
      "efficient": 3938,
      "config": 3939,
      "ancestor": 3940,
      "capacity": 3941,
      "exactly": 3942,
      "amplitude": 3943,
      "Oxygen": 3944,
      "suffici": 3945,
      ",”": 3946,
      "Atoms": 3947,
      "dust": 3948,
      "gent": 3949,
      "glia": 3950,
      "kin": 3951,
      "pter": 3952,
      "sensi": 3953,
      "ange": 3954,
      "compart": 3955,
      "nee": 3956,
      "synthesize": 3957,
      "medial": 3958,
      "shapes": 3959,
      "symme": 3960,
      "dram": 3961,
      "reactant": 3962,
      "stronger": 3963,
      "stimulus": 3964,
      "rotation": 3965,
      "attracted": 3966,
      "segment": 3967,
      "contribute": 3968,
      "mountain": 3969,
      "barrier": 3970,
      "dangerous": 3971,
      "urethra": 3972,
      "categ": 3973,
      "entropy": 3974,
      "phragm": 3975,
      "32": 3976,
      "Mut": 3977,
      "Oce": 3978,
      "gap": 3979,
      "walk": 3980,
      "altitu": 3981,
      "seem": 3982,
      "iding": 3983,
      "quarks": 3984,
      "monos": 3985,
      "lling": 3986,
      "serious": 3987,
      "minim": 3988,
      "Sometimes": 3989,
      "effective": 3990,
      "consisting": 3991,
      "measurement": 3992,
      "potassium": 3993,
      "supports": 3994,
      "transported": 3995,
      "oxidized": 3996,
      "mixtures": 3997,
      "pollin": 3998,
      "climates": 3999,
      "vitamins": 4000,
      "community": 4001,
      "adily": 4002,
      "collision": 4003,
      "closely": 4004,
      "dimensional": 4005,
      "sedimentary": 4006,
      "proportional": 4007,
      "Nuclear": 4008,
      "slope": 4009,
      "Different": 4010,
      "vagina": 4011,
      "Evolution": 4012,
      "Mol": 4013,
      "gaseous": 4014,
      "ogenesis": 4015,
      "recessive": 4016,
      "anal": 4017,
      "anatom": 4018,
      "anium": 4019,
      "ery": 4020,
      "leg": 4021,
      "lem": 4022,
      "stain": 4023,
      "elim": 4024,
      "whose": 4025,
      "chest": 4026,
      "amp": 4027,
      "construc": 4028,
      "ements": 4029,
      "organelle": 4030,
      "aking": 4031,
      "fire": 4032,
      "intensity": 4033,
      "generations": 4034,
      "ification": 4035,
      "holds": 4036,
      "herbi": 4037,
      "ballo": 4038,
      "sequences": 4039,
      "names": 4040,
      "Plant": 4041,
      "remaining": 4042,
      "ribosomes": 4043,
      "nucleotide": 4044,
      "sweat": 4045,
      "replication": 4046,
      "experience": 4047,
      "earliest": 4048,
      "situ": 4049,
      "biodiversity": 4050,
      "widely": 4051,
      "network": 4052,
      "Gene": 4053,
      "Natur": 4054,
      "ker": 4055,
      "ube": 4056,
      "redo": 4057,
      "estim": 4058,
      "aline": 4059,
      "tious": 4060,
      "susp": 4061,
      "lith": 4062,
      "tration": 4063,
      "amine": 4064,
      "loses": 4065,
      "impro": 4066,
      "idea": 4067,
      "fight": 4068,
      "occurred": 4069,
      "interior": 4070,
      "viral": 4071,
      "corro": 4072,
      "extinct": 4073,
      "leave": 4074,
      "sediments": 4075,
      "chlorophyll": 4076,
      "nearby": 4077,
      "pollutants": 4078,
      "initial": 4079,
      "diaphragm": 4080,
      "bulb": 4081,
      "purpose": 4082,
      "techni": 4083,
      "osmotic": 4084,
      "pigment": 4085,
      "hydroxide": 4086,
      "Trans": 4087,
      "Temperature": 4088,
      "retina": 4089,
      "redox": 4090,
      "(“": 4091,
      "Col": 4092,
      "ling": 4093,
      "listed": 4094,
      "repair": 4095,
      "forward": 4096,
      "ulti": 4097,
      "ultra": 4098,
      "coord": 4099,
      "plankton": 4100,
      "interference": 4101,
      "fluor": 4102,
      "cepts": 4103,
      "backbone": 4104,
      "symptoms": 4105,
      "neural": 4106,
      "negatively": 4107,
      "regulated": 4108,
      "reflected": 4109,
      "System": 4110,
      "Food": 4111,
      "contribut": 4112,
      "injury": 4113,
      "aqueous": 4114,
      "atrium": 4115,
      "Cons": 4116,
      "Ionic": 4117,
      "draw": 4118,
      "jaw": 4119,
      "mm": 4120,
      "sle": 4121,
      "vae": 4122,
      "wise": 4123,
      "tially": 4124,
      "stat": 4125,
      "iter": 4126,
      "pool": 4127,
      "neph": 4128,
      "essentially": 4129,
      "carbonate": 4130,
      "agents": 4131,
      "record": 4132,
      "Any": 4133,
      "tax": 4134,
      "positively": 4135,
      "separation": 4136,
      "fertilized": 4137,
      "volcanic": 4138,
      "States": 4139,
      "technology": 4140,
      "conservation": 4141,
      "questions": 4142,
      "vestig": 4143,
      "bronchi": 4144,
      "saliva": 4145,
      "heterotrophs": 4146,
      "isphere": 4147,
      "permeable": 4148,
      "Natural": 4149,
      "bly": 4150,
      "eper": 4151,
      "tons": 4152,
      "vate": 4153,
      "tid": 4154,
      "according": 4155,
      "quant": 4156,
      "output": 4157,
      "onses": 4158,
      "viously": 4159,
      "numerous": 4160,
      "orbits": 4161,
      "visual": 4162,
      "lake": 4163,
      "defini": 4164,
      "axons": 4165,
      "Living": 4166,
      "balanced": 4167,
      "Under": 4168,
      "farther": 4169,
      "beneath": 4170,
      "Without": 4171,
      "Hydro": 4172,
      "integr": 4173,
      "signaling": 4174,
      "ventricle": 4175,
      "pregnan": 4176,
      "esophagus": 4177,
      "Pr": 4178,
      "Sec": 4179,
      "Sex": 4180,
      "flight": 4181,
      "gills": 4182,
      "nid": 4183,
      "uge": 4184,
      "inst": 4185,
      "readily": 4186,
      "onto": 4187,
      "rod": 4188,
      "access": 4189,
      "plets": 4190,
      "rib": 4191,
      "sister": 4192,
      "larg": 4193,
      "reef": 4194,
      "metam": 4195,
      "coron": 4196,
      "extend": 4197,
      "forest": 4198,
      "engine": 4199,
      "lagen": 4200,
      "tubes": 4201,
      "measurements": 4202,
      "genetics": 4203,
      "nutrient": 4204,
      "microorganisms": 4205,
      "pollination": 4206,
      "testes": 4207,
      "approach": 4208,
      "vitamin": 4209,
      "volcano": 4210,
      "phag": 4211,
      "Organisms": 4212,
      "predict": 4213,
      "piece": 4214,
      "evaporation": 4215,
      "applications": 4216,
      "Proteins": 4217,
      "spontaneous": 4218,
      "amniotic": 4219,
      "Vertebr": 4220,
      "chromatids": 4221,
      "Chapter": 4222,
      "CC": 4223,
      "Fe": 4224,
      "Mammals": 4225,
      "Note": 4226,
      "cm": 4227,
      "fec": 4228,
      "gers": 4229,
      "ities": 4230,
      "pus": 4231,
      "sc": 4232,
      "yet": 4233,
      "zones": 4234,
      "ert": 4235,
      "ising": 4236,
      "explan": 4237,
      "acting": 4238,
      "diffuse": 4239,
      "ensions": 4240,
      "larvae": 4241,
      "aneously": 4242,
      "holes": 4243,
      "starch": 4244,
      "phosphorus": 4245,
      "binary": 4246,
      "molar": 4247,
      "Comp": 4248,
      "feeding": 4249,
      "cooler": 4250,
      "maintaining": 4251,
      "benefits": 4252,
      "storms": 4253,
      "undergoes": 4254,
      "articul": 4255,
      "taking": 4256,
      "square": 4257,
      "osmosis": 4258,
      "consume": 4259,
      "33": 4260,
      "Ele": 4261,
      "Equ": 4262,
      "Sever": 4263,
      "cus": 4264,
      "cations": 4265,
      "vical": 4266,
      "investig": 4267,
      "escape": 4268,
      "enes": 4269,
      "arwin": 4270,
      "sters": 4271,
      "sph": 4272,
      "oda": 4273,
      "emia": 4274,
      "urinary": 4275,
      "tics": 4276,
      "paralle": 4277,
      "pressures": 4278,
      "upward": 4279,
      "relax": 4280,
      "prac": 4281,
      "going": 4282,
      "grains": 4283,
      "defense": 4284,
      "sugges": 4285,
      "conversion": 4286,
      "strongly": 4287,
      "plicated": 4288,
      "manu": 4289,
      "survival": 4290,
      "exercise": 4291,
      "greatly": 4292,
      "receive": 4293,
      "cerebell": 4294,
      "copies": 4295,
      "phenotype": 4296,
      "destroyed": 4297,
      "gametophyte": 4298,
      "mirror": 4299,
      "ultraviolet": 4300,
      "Several": 4301,
      "!.": 4302,
      "Do": 4303,
      "Unit": 4304,
      "huge": 4305,
      "varies": 4306,
      "independent": 4307,
      "oral": 4308,
      "ofil": 4309,
      "season": 4310,
      "constr": 4311,
      "geo": 4312,
      "phobic": 4313,
      "cos": 4314,
      "sho": 4315,
      "books": 4316,
      "cient": 4317,
      "centri": 4318,
      "worm": 4319,
      "sulf": 4320,
      "breast": 4321,
      "breathe": 4322,
      "nosperms": 4323,
      "properly": 4324,
      "graphic": 4325,
      "electroly": 4326,
      "oceanic": 4327,
      "treated": 4328,
      "filaments": 4329,
      "explo": 4330,
      "standing": 4331,
      "multip": 4332,
      "alkanes": 4333,
      "uterine": 4334,
      "Foss": 4335,
      "wards": 4336,
      "calculated": 4337,
      "grams": 4338,
      "asexually": 4339,
      "vacuole": 4340,
      "Electrons": 4341,
      "Phys": 4342,
      "innate": 4343,
      "glycogen": 4344,
      "weeks": 4345,
      "introduc": 4346,
      "maximum": 4347,
      "formulas": 4348,
      "erythro": 4349,
      "parallel": 4350,
      "Amer": 4351,
      "DH": 4352,
      "Non": 4353,
      "O2": 4354,
      "Vis": 4355,
      "ben": 4356,
      "osm": 4357,
      "anions": 4358,
      "ises": 4359,
      "eding": 4360,
      "tional": 4361,
      "consti": 4362,
      "urs": 4363,
      "reser": 4364,
      "strand": 4365,
      "biome": 4366,
      "inder": 4367,
      "interaction": 4368,
      "intermediate": 4369,
      "poses": 4370,
      "astro": 4371,
      "chemically": 4372,
      "valves": 4373,
      "equations": 4374,
      "fici": 4375,
      "tually": 4376,
      "digested": 4377,
      "follows": 4378,
      "intestinal": 4379,
      "catalyst": 4380,
      "inheritance": 4381,
      "angiosperms": 4382,
      "Molecules": 4383,
      "arbonate": 4384,
      "brown": 4385,
      "quantum": 4386,
      "Br": 4387,
      "Chem": 4388,
      "Ly": 4389,
      "Me": 4390,
      "knee": 4391,
      "pine": 4392,
      "sid": 4393,
      "sites": 4394,
      "zinc": 4395,
      "inated": 4396,
      "itch": 4397,
      "sem": 4398,
      "died": 4399,
      "prop": 4400,
      "spir": 4401,
      "unsaturated": 4402,
      "uranium": 4403,
      "Ther": 4404,
      "Inter": 4405,
      "curve": 4406,
      "ifer": 4407,
      "mately": 4408,
      "polys": 4409,
      "responses": 4410,
      "oskelet": 4411,
      "cervical": 4412,
      "overcome": 4413,
      "passing": 4414,
      "continents": 4415,
      "polarization": 4416,
      "machines": 4417,
      "conductor": 4418,
      "adaptive": 4419,
      "glycer": 4420,
      "exerts": 4421,
      "pulls": 4422,
      "beginning": 4423,
      "Hyd": 4424,
      "bilay": 4425,
      "deli": 4426,
      "cerebrum": 4427,
      "Similar": 4428,
      "respectively": 4429,
      "Look": 4430,
      "speciation": 4431,
      "antibiotics": 4432,
      "decomposers": 4433,
      "sufficient": 4434,
      "symmetry": 4435,
      "cerebellum": 4436,
      "aq": 4437,
      "final": 4438,
      "ovi": 4439,
      "inite": 4440,
      "antic": 4441,
      "alter": 4442,
      "tocin": 4443,
      "aren": 4444,
      "mole": 4445,
      "ured": 4446,
      "deal": 4447,
      "gym": 4448,
      "adding": 4449,
      "tyl": 4450,
      "coil": 4451,
      "collagen": 4452,
      "ify": 4453,
      "equi": 4454,
      "equator": 4455,
      "protective": 4456,
      "liter": 4457,
      "stimulate": 4458,
      "senses": 4459,
      "ubic": 4460,
      "reflect": 4461,
      "excretory": 4462,
      "repeated": 4463,
      "Resp": 4464,
      "chyme": 4465,
      "packed": 4466,
      "chordates": 4467,
      "carboxylic": 4468,
      "tightly": 4469,
      "stick": 4470,
      "distinguish": 4471,
      "definition": 4472,
      "United": 4473,
      "Ab": 4474,
      "Au": 4475,
      "Flu": 4476,
      "Ha": 4477,
      "Im": 4478,
      "Lip": 4479,
      "Mag": 4480,
      "Ob": 4481,
      "Sm": 4482,
      "Struc": 4483,
      "aphase": 4484,
      "east": 4485,
      "iled": 4486,
      "night": 4487,
      "vor": 4488,
      "women": 4489,
      "yout": 4490,
      "ancient": 4491,
      "enh": 4492,
      "asts": 4493,
      "lycer": 4494,
      "maps": 4495,
      "comm": 4496,
      "aden": 4497,
      "carnivores": 4498,
      "illary": 4499,
      "opia": 4500,
      "endothermic": 4501,
      "colored": 4502,
      "hibits": 4503,
      "hydrophobic": 4504,
      "gasoline": 4505,
      "overl": 4506,
      "flowing": 4507,
      "nonmetal": 4508,
      "starting": 4509,
      "portions": 4510,
      "versely": 4511,
      "neutron": 4512,
      "drink": 4513,
      "conduction": 4514,
      "ophytes": 4515,
      "exerted": 4516,
      "Within": 4517,
      "ieve": 4518,
      "wheel": 4519,
      "Arch": 4520,
      "menstr": 4521,
      "tumor": 4522,
      "calculate": 4523,
      "counter": 4524,
      "studies": 4525,
      "competition": 4526,
      "isolated": 4527,
      "recognize": 4528,
      "uminum": 4529,
      "Pressure": 4530,
      "\").": 4531,
      "35": 4532,
      "Every": 4533,
      "No": 4534,
      "Sp": 4535,
      "centi": 4536,
      "hatch": 4537,
      "vic": 4538,
      "seis": 4539,
      "sud": 4540,
      "dig": 4541,
      "genoty": 4542,
      "perman": 4543,
      "bony": 4544,
      "paratus": 4545,
      "displacement": 4546,
      "copy": 4547,
      "preser": 4548,
      "book": 4549,
      "tures": 4550,
      "hydrolysis": 4551,
      "And": 4552,
      "impact": 4553,
      "osc": 4554,
      "triple": 4555,
      "protected": 4556,
      "limit": 4557,
      "immunity": 4558,
      "linear": 4559,
      "alkali": 4560,
      "classification": 4561,
      "continuously": 4562,
      "communicate": 4563,
      "entirely": 4564,
      "built": 4565,
      "lattice": 4566,
      "covering": 4567,
      "cloud": 4568,
      "patients": 4569,
      "phospholipid": 4570,
      "Nitrogen": 4571,
      "failure": 4572,
      "sleep": 4573,
      "pregnancy": 4574,
      "34": 4575,
      "Am": 4576,
      "BY": 4577,
      "My": 4578,
      "Mer": 4579,
      "Noti": 4580,
      "ets": 4581,
      "ls": 4582,
      "threat": 4583,
      "inhibit": 4584,
      "ened": 4585,
      "rope": 4586,
      "ards": 4587,
      "tia": 4588,
      "asons": 4589,
      "lize": 4590,
      "uctose": 4591,
      "illi": 4592,
      "exothermic": 4593,
      "local": 4594,
      "iger": 4595,
      "duct": 4596,
      "bright": 4597,
      "apparatus": 4598,
      "incor": 4599,
      "rought": 4600,
      "contamin": 4601,
      "monomers": 4602,
      "physi": 4603,
      "osin": 4604,
      "zymes": 4605,
      "infected": 4606,
      "secretes": 4607,
      "warming": 4608,
      "radioactivity": 4609,
      "percentage": 4610,
      "append": 4611,
      "attractive": 4612,
      "runs": 4613,
      "lymphatic": 4614,
      "eruptions": 4615,
      "mountains": 4616,
      "phospholipids": 4617,
      "protozoa": 4618,
      "glaciers": 4619,
      "configuration": 4620,
      "Ocean": 4621,
      "balloon": 4622,
      "Notice": 4623,
      "First": 4624,
      "Mi": 4625,
      "Ri": 4626,
      "drop": 4627,
      "ered": 4628,
      "gree": 4629,
      "itic": 4630,
      "kines": 4631,
      "oils": 4632,
      "rons": 4633,
      "rust": 4634,
      "hear": 4635,
      "acqu": 4636,
      "moss": 4637,
      "consci": 4638,
      "convection": 4639,
      "emission": 4640,
      "uries": 4641,
      "plus": 4642,
      "exoskelet": 4643,
      "detail": 4644,
      "deeper": 4645,
      "compar": 4646,
      "partially": 4647,
      "rivers": 4648,
      "dissoci": 4649,
      "coch": 4650,
      "creating": 4651,
      "agric": 4652,
      "epid": 4653,
      "depth": 4654,
      "gravit": 4655,
      "mutual": 4656,
      "reduces": 4657,
      "nails": 4658,
      "warmer": 4659,
      "looking": 4660,
      "indicate": 4661,
      "interesting": 4662,
      "resem": 4663,
      "Solu": 4664,
      "kilometers": 4665,
      "Surface": 4666,
      "youtube": 4667,
      "sudden": 4668,
      "ER": 4669,
      "High": 4670,
      "Mon": 4671,
      "Say": 4672,
      "Sub": 4673,
      "bend": 4674,
      "cou": 4675,
      "da": 4676,
      "ming": 4677,
      "morph": 4678,
      "massive": 4679,
      "ood": 4680,
      "sent": 4681,
      "vacc": 4682,
      "want": 4683,
      "ank": 4684,
      "ensure": 4685,
      "itor": 4686,
      "door": 4687,
      "ansion": 4688,
      "anything": 4689,
      "mono": 4690,
      "oble": 4691,
      "equals": 4692,
      "letter": 4693,
      "leaving": 4694,
      "sky": 4695,
      "absence": 4696,
      "periods": 4697,
      "fewer": 4698,
      "maintains": 4699,
      "pyru": 4700,
      "contracts": 4701,
      "vital": 4702,
      "________": 4703,
      "extreme": 4704,
      "quantities": 4705,
      "deposits": 4706,
      "saylor": 4707,
      "emitted": 4708,
      "accumul": 4709,
      "therapy": 4710,
      "Micro": 4711,
      "herbivores": 4712,
      "cosity": 4713,
      "oscill": 4714,
      "Saylor": 4715,
      "Dig": 4716,
      "ST": 4717,
      "ade": 4718,
      "bund": 4719,
      "scre": 4720,
      "uk": 4721,
      "”).": 4722,
      "esium": 4723,
      "oming": 4724,
      "seven": 4725,
      "dipole": 4726,
      "ligh": 4727,
      "bees": 4728,
      "genic": 4729,
      "mete": 4730,
      "ometer": 4731,
      "cost": 4732,
      "strands": 4733,
      "became": 4734,
      "becoming": 4735,
      "carbons": 4736,
      "dermis": 4737,
      "visions": 4738,
      "clot": 4739,
      "reducing": 4740,
      "frequently": 4741,
      "gamete": 4742,
      "observation": 4743,
      "damaged": 4744,
      "scales": 4745,
      "catalysts": 4746,
      "lymphocytes": 4747,
      "influenced": 4748,
      "Sym": 4749,
      "droplets": 4750,
      "excessive": 4751,
      "Addition": 4752,
      "bigger": 4753,
      "consumed": 4754,
      "lactose": 4755,
      "messages": 4756,
      "macromolecules": 4757,
      "bicarbonate": 4758,
      "neurotransmit": 4759,
      "corresponding": 4760,
      "instruments": 4761,
      "telescopes": 4762,
      "sensitive": 4763,
      "nidari": 4764,
      "largely": 4765,
      "Hydrogen": 4766,
      "bilayer": 4767,
      "\".": 4768,
      "38": 4769,
      "Low": 4770,
      "NH": 4771,
      "SH": 4772,
      "Sal": 4773,
      "Soil": 4774,
      "aid": 4775,
      "drome": 4776,
      "fav": 4777,
      "ient": 4778,
      "ject": 4779,
      "passive": 4780,
      "rub": 4781,
      "van": 4782,
      "refraction": 4783,
      "onds": 4784,
      "err": 4785,
      "ester": 4786,
      "enclosed": 4787,
      "issu": 4788,
      "isting": 4789,
      "rous": 4790,
      "ask": 4791,
      "acles": 4792,
      "itud": 4793,
      "omb": 4794,
      "olgi": 4795,
      "proxim": 4796,
      "proceed": 4797,
      "amines": 4798,
      "concepts": 4799,
      "versus": 4800,
      "haps": 4801,
      "geal": 4802,
      "coming": 4803,
      "adjust": 4804,
      "mental": 4805,
      "velo": 4806,
      "display": 4807,
      "doing": 4808,
      "codi": 4809,
      "electrically": 4810,
      "illness": 4811,
      "cathod": 4812,
      "upiter": 4813,
      "cilia": 4814,
      "giant": 4815,
      "aging": 4816,
      "agent": 4817,
      "butter": 4818,
      "phylo": 4819,
      "gastric": 4820,
      "coral": 4821,
      "minor": 4822,
      "distant": 4823,
      "hollow": 4824,
      "rising": 4825,
      "Life": 4826,
      "easy": 4827,
      "End": 4828,
      "miles": 4829,
      "collide": 4830,
      "safe": 4831,
      "streams": 4832,
      "continuous": 4833,
      "memory": 4834,
      "indicates": 4835,
      "accharide": 4836,
      "homogeneous": 4837,
      "toxins": 4838,
      "energies": 4839,
      "Cancer": 4840,
      "philic": 4841,
      "migration": 4842,
      "projec": 4843,
      "lifes": 4844,
      "hours": 4845,
      "Radio": 4846,
      "cranial": 4847,
      "Glucose": 4848,
      "demonstr": 4849,
      "abiotic": 4850,
      "autonomic": 4851,
      "Mutations": 4852,
      "Second": 4853,
      "osmol": 4854,
      "Diges": 4855,
      "46": 4856,
      "Darwin": 4857,
      "Finally": 4858,
      "Such": 4859,
      "UV": 4860,
      "fre": 4861,
      "inity": 4862,
      "induction": 4863,
      "aluminum": 4864,
      "edge": 4865,
      "older": 4866,
      "divisions": 4867,
      "proposed": 4868,
      "forth": 4869,
      "ulum": 4870,
      "spaces": 4871,
      "loids": 4872,
      "Three": 4873,
      "shallow": 4874,
      "systemic": 4875,
      "estrogen": 4876,
      "tropo": 4877,
      "forearm": 4878,
      "echinoderms": 4879,
      "distinc": 4880,
      "bud": 4881,
      "ilia": 4882,
      "summer": 4883,
      "regulatory": 4884,
      "embryos": 4885,
      "connects": 4886,
      "segments": 4887,
      "sinus": 4888,
      "Types": 4889,
      "reversible": 4890,
      "Photosynthesis": 4891,
      "Fertiliz": 4892,
      "electronegativity": 4893,
      "itudinal": 4894,
      "velope": 4895,
      "70": 4896,
      "Amin": 4897,
      "Cs": 4898,
      "Gree": 4899,
      "Tran": 4900,
      "cation": 4901,
      "gains": 4902,
      "ither": 4903,
      "itive": 4904,
      "ml": 4905,
      "scat": 4906,
      "udes": 4907,
      "iny": 4908,
      "retain": 4909,
      "alone": 4910,
      "ros": 4911,
      "arly": 4912,
      "accom": 4913,
      "outw": 4914,
      "version": 4915,
      "neigh": 4916,
      "cyc": 4917,
      "larval": 4918,
      "buted": 4919,
      "desc": 4920,
      "kness": 4921,
      "notoch": 4922,
      "releasing": 4923,
      "synthesized": 4924,
      "lesson": 4925,
      "positions": 4926,
      "plasmic": 4927,
      "bub": 4928,
      "definite": 4929,
      "steel": 4930,
      "expansion": 4931,
      "speeds": 4932,
      "polymers": 4933,
      "mollusks": 4934,
      "Compare": 4935,
      "resistant": 4936,
      "transmitted": 4937,
      "ventricles": 4938,
      "writ": 4939,
      "aginous": 4940,
      "closest": 4941,
      "earlier": 4942,
      "penetrate": 4943,
      "Viruses": 4944,
      "untary": 4945,
      "altitude": 4946,
      "monosaccharides": 4947,
      "Consider": 4948,
      "manufact": 4949,
      "ficiency": 4950,
      "gymnosperms": 4951,
      "pyruvate": 4952,
      "AP": 4953,
      "Just": 4954,
      "aort": 4955,
      "fuses": 4956,
      "gres": 4957,
      "mary": 4958,
      "nic": 4959,
      "nodes": 4960,
      "noble": 4961,
      "ute": 4962,
      "inate": 4963,
      "infr": 4964,
      "anaerobic": 4965,
      "onia": 4966,
      "envelope": 4967,
      "arise": 4968,
      "hearing": 4969,
      "stone": 4970,
      "elom": 4971,
      "elly": 4972,
      "itin": 4973,
      "lived": 4974,
      "spot": 4975,
      "mathe": 4976,
      "plast": 4977,
      "alline": 4978,
      "otre": 4979,
      "resid": 4980,
      "ribs": 4981,
      "acetyl": 4982,
      "oxytocin": 4983,
      "acks": 4984,
      "translation": 4985,
      "pped": 4986,
      "fructose": 4987,
      "dividing": 4988,
      "longitudinal": 4989,
      "circle": 4990,
      "transports": 4991,
      "mixed": 4992,
      "vessel": 4993,
      "hole": 4994,
      "outermost": 4995,
      "Chromo": 4996,
      "provided": 4997,
      "Electric": 4998,
      "drift": 4999,
      "obtained": 5000,
      "flowering": 5001,
      "simpler": 5002,
      "gradually": 5003,
      "sponges": 5004,
      "juice": 5005,
      "precis": 5006,
      "osaurs": 5007,
      "ligaments": 5008,
      "Electromagnetic": 5009,
      "Hormones": 5010,
      "fluorine": 5011,
      "coronary": 5012,
      "Elements": 5013,
      "overlap": 5014,
      "written": 5015,
      "aorta": 5016,
      "Gly": 5017,
      "Gases": 5018,
      "Matter": 5019,
      "Sum": 5020,
      "bular": 5021,
      "pin": 5022,
      "swell": 5023,
      "wing": 5024,
      "zen": 5025,
      "intr": 5026,
      "retic": 5027,
      "repul": 5028,
      "replace": 5029,
      "anion": 5030,
      "isomers": 5031,
      "arti": 5032,
      "icates": 5033,
      "stability": 5034,
      "veh": 5035,
      "lie": 5036,
      "tries": 5037,
      "amand": 5038,
      "ulf": 5039,
      "odor": 5040,
      "degree": 5041,
      "loid": 5042,
      "quality": 5043,
      "coast": 5044,
      "curved": 5045,
      "vier": 5046,
      "tism": 5047,
      "cler": 5048,
      "ossi": 5049,
      "involving": 5050,
      "passage": 5051,
      "joined": 5052,
      "secretions": 5053,
      "summar": 5054,
      "cytoskeleton": 5055,
      "athers": 5056,
      "Enzymes": 5057,
      "burned": 5058,
      "feeders": 5059,
      "xylem": 5060,
      "deposited": 5061,
      "channel": 5062,
      "Sexual": 5063,
      "feces": 5064,
      "explanation": 5065,
      "conscious": 5066,
      "cochlea": 5067,
      "daily": 5068,
      "notochord": 5069,
      "mathemat": 5070,
      "500": 5071,
      "Amph": 5072,
      "Fish": 5073,
      "Grou": 5074,
      "Mars": 5075,
      "SI": 5076,
      "cers": 5077,
      "dors": 5078,
      "hroom": 5079,
      "oocyte": 5080,
      "ping": 5081,
      "tren": 5082,
      "inations": 5083,
      "inhal": 5084,
      "arity": 5085,
      "arri": 5086,
      "asto": 5087,
      "ican": 5088,
      "ingest": 5089,
      "omass": 5090,
      "semi": 5091,
      "diam": 5092,
      "ulla": 5093,
      "oden": 5094,
      "urric": 5095,
      "deple": 5096,
      "thermod": 5097,
      "geome": 5098,
      "ganglia": 5099,
      "whenever": 5100,
      "cyan": 5101,
      "aks": 5102,
      "mushroom": 5103,
      "corpus": 5104,
      "bread": 5105,
      "magnets": 5106,
      "plastic": 5107,
      "nitric": 5108,
      "functioning": 5109,
      "getting": 5110,
      "sexes": 5111,
      "versions": 5112,
      "encoun": 5113,
      "platelets": 5114,
      "turb": 5115,
      "tendency": 5116,
      "communication": 5117,
      "reflects": 5118,
      "mucous": 5119,
      "triglycer": 5120,
      "publ": 5121,
      "endoskeleton": 5122,
      "reasoning": 5123,
      "ammonium": 5124,
      "infectious": 5125,
      "succession": 5126,
      "frogs": 5127,
      "dispersion": 5128,
      "condensation": 5129,
      "chambers": 5130,
      "differentiate": 5131,
      "duoden": 5132,
      "Muscle": 5133,
      "establish": 5134,
      "septum": 5135,
      "sphinc": 5136,
      "erythrocytes": 5137,
      "menstrual": 5138,
      "troposphere": 5139,
      "cycled": 5140,
      "CNS": 5141,
      "LH": 5142,
      "Miner": 5143,
      "Ner": 5144,
      "Po": 5145,
      "Partic": 5146,
      "Sper": 5147,
      "Uni": 5148,
      "box": 5149,
      "fut": 5150,
      "gar": 5151,
      "glu": 5152,
      "hed": 5153,
      "hill": 5154,
      "hands": 5155,
      "mate": 5156,
      "restr": 5157,
      "tides": 5158,
      "suck": 5159,
      "sustain": 5160,
      "prostate": 5161,
      "proced": 5162,
      "conve": 5163,
      "spac": 5164,
      "bered": 5165,
      "sizes": 5166,
      "disrup": 5167,
      "coo": 5168,
      "string": 5169,
      "giving": 5170,
      "oxygenated": 5171,
      "photic": 5172,
      "syndrome": 5173,
      "extensive": 5174,
      "stitial": 5175,
      "medulla": 5176,
      "underlying": 5177,
      "controlling": 5178,
      "utrients": 5179,
      "continent": 5180,
      "infect": 5181,
      "nutrition": 5182,
      "Liqu": 5183,
      "expect": 5184,
      "bedded": 5185,
      "melts": 5186,
      "boron": 5187,
      "ieved": 5188,
      "sacs": 5189,
      "sucrose": 5190,
      "family": 5191,
      "triggers": 5192,
      "alloy": 5193,
      "chloroplast": 5194,
      "alternating": 5195,
      "clearly": 5196,
      "Newton": 5197,
      "attacks": 5198,
      "H2O": 5199,
      "fragments": 5200,
      "spiral": 5201,
      "Lipids": 5202,
      "meteor": 5203,
      "freely": 5204,
      "duodenum": 5205,
      "future": 5206,
      "39": 5207,
      "Gener": 5208,
      "Your": 5209,
      "dating": 5210,
      "jelly": 5211,
      "longest": 5212,
      "sn": 5213,
      "tall": 5214,
      "vast": 5215,
      "villi": 5216,
      "wings": 5217,
      "intra": 5218,
      "anus": 5219,
      "anode": 5220,
      "onco": 5221,
      "orosis": 5222,
      "sets": 5223,
      "uck": 5224,
      "ella": 5225,
      "absolute": 5226,
      "ateral": 5227,
      "organization": 5228,
      "covers": 5229,
      "contents": 5230,
      "shif": 5231,
      "shock": 5232,
      "cave": 5233,
      "oporosis": 5234,
      "surpr": 5235,
      "compact": 5236,
      "ears": 5237,
      "ferns": 5238,
      "matic": 5239,
      "mating": 5240,
      "entials": 5241,
      "transfers": 5242,
      "corn": 5243,
      "limb": 5244,
      "measuring": 5245,
      "germ": 5246,
      "ipal": 5247,
      "basal": 5248,
      "determining": 5249,
      "arteri": 5250,
      "abolism": 5251,
      "nail": 5252,
      "crystalline": 5253,
      "Char": 5254,
      "melan": 5255,
      "everything": 5256,
      "classify": 5257,
      "attachment": 5258,
      "Acids": 5259,
      "insect": 5260,
      "aquifer": 5261,
      "sporangi": 5262,
      "excretion": 5263,
      "microscopic": 5264,
      "conserved": 5265,
      "harmless": 5266,
      "warf": 5267,
      "Animal": 5268,
      "Metals": 5269,
      "activated": 5270,
      "application": 5271,
      "thylak": 5272,
      "Gravity": 5273,
      "antigens": 5274,
      "dehydration": 5275,
      "horizontal": 5276,
      "humidity": 5277,
      "ectother": 5278,
      "disturb": 5279,
      "corrosion": 5280,
      "ultimately": 5281,
      "kinesis": 5282,
      "cathode": 5283,
      "outward": 5284,
      "clerosis": 5285,
      "cooled": 5286,
      "Bone": 5287,
      "Gi": 5288,
      "Hg": 5289,
      "Su": 5290,
      "dy": 5291,
      "ef": 5292,
      "tent": 5293,
      "vable": 5294,
      "atically": 5295,
      "isn": 5296,
      "astr": 5297,
      "assem": 5298,
      "accep": 5299,
      "stones": 5300,
      "elong": 5301,
      "ital": 5302,
      "amorph": 5303,
      "emis": 5304,
      "embedded": 5305,
      "dered": 5306,
      "load": 5307,
      "tically": 5308,
      "perate": 5309,
      "performed": 5310,
      "gangl": 5311,
      "plex": 5312,
      "Insec": 5313,
      "chance": 5314,
      "cyl": 5315,
      "subsequ": 5316,
      "indust": 5317,
      "match": 5318,
      "virtually": 5319,
      "valu": 5320,
      "transform": 5321,
      "pulled": 5322,
      "extent": 5323,
      "importance": 5324,
      "limation": 5325,
      "gery": 5326,
      "buffer": 5327,
      "ologist": 5328,
      "sympathetic": 5329,
      "drum": 5330,
      "uniform": 5331,
      "rows": 5332,
      "converts": 5333,
      "falling": 5334,
      "molten": 5335,
      "entering": 5336,
      "Common": 5337,
      "myel": 5338,
      "smoke": 5339,
      "member": 5340,
      "silver": 5341,
      "pushing": 5342,
      "somatic": 5343,
      "repeating": 5344,
      "ribosome": 5345,
      "flexible": 5346,
      "kilo": 5347,
      "batteries": 5348,
      "pigments": 5349,
      "galaxy": 5350,
      "messeng": 5351,
      "gonads": 5352,
      "fingers": 5353,
      "junctions": 5354,
      "keratin": 5355,
      "Compounds": 5356,
      "constitu": 5357,
      "polysaccharides": 5358,
      "Mercury": 5359,
      "gravitational": 5360,
      "dorsal": 5361,
      "36": 5362,
      "80": 5363,
      "Event": 5364,
      "Fr": 5365,
      "Pot": 5366,
      "Pop": 5367,
      "Skelet": 5368,
      "Tod": 5369,
      "dwarf": 5370,
      "ito": 5371,
      "sor": 5372,
      "sick": 5373,
      "sends": 5374,
      "thma": 5375,
      "recycled": 5376,
      "enables": 5377,
      "leuk": 5378,
      "towards": 5379,
      "ict": 5380,
      "aca": 5381,
      "moons": 5382,
      "trun": 5383,
      "dele": 5384,
      "aters": 5385,
      "neum": 5386,
      "neous": 5387,
      "neither": 5388,
      "meet": 5389,
      "pepsin": 5390,
      "coat": 5391,
      "fog": 5392,
      "hemisphere": 5393,
      "carbonyl": 5394,
      "magine": 5395,
      "Anti": 5396,
      "prof": 5397,
      "viscosity": 5398,
      "factory": 5399,
      "limits": 5400,
      "potentials": 5401,
      "working": 5402,
      "reflection": 5403,
      "trem": 5404,
      "complexes": 5405,
      "Chlor": 5406,
      "melt": 5407,
      "appropri": 5408,
      "seafloor": 5409,
      "boundary": 5410,
      "mediately": 5411,
      "protist": 5412,
      "returns": 5413,
      "Sodium": 5414,
      "facial": 5415,
      "sponge": 5416,
      "trapped": 5417,
      "analysis": 5418,
      "gametophytes": 5419,
      "stratosphere": 5420,
      "satellites": 5421,
      "abdominal": 5422,
      "anatomical": 5423,
      "metamor": 5424,
      "Vertebrates": 5425,
      "About": 5426,
      "Fertilization": 5427,
      "infrared": 5428,
      "amanders": 5429,
      "Eventually": 5430,
      "Today": 5431,
      "45": 5432,
      "Lar": 5433,
      "Rep": 5434,
      "SO": 5435,
      "Ven": 5436,
      "came": 5437,
      "dens": 5438,
      "iol": 5439,
      "mous": 5440,
      "nia": 5441,
      "rum": 5442,
      "sar": 5443,
      "send": 5444,
      "scap": 5445,
      "tonic": 5446,
      "vated": 5447,
      "inches": 5448,
      "really": 5449,
      "anges": 5450,
      "ancy": 5451,
      "enable": 5452,
      "alive": 5453,
      "tiles": 5454,
      "oul": 5455,
      "itely": 5456,
      "trill": 5457,
      "ulture": 5458,
      "conven": 5459,
      "looks": 5460,
      "pop": 5461,
      "ades": 5462,
      "pet": 5463,
      "Through": 5464,
      "shr": 5465,
      "noted": 5466,
      "actual": 5467,
      "soils": 5468,
      "surgery": 5469,
      "ifically": 5470,
      "bial": 5471,
      "temperate": 5472,
      "pping": 5473,
      "correc": 5474,
      "downward": 5475,
      "magnetism": 5476,
      "maternal": 5477,
      "clock": 5478,
      "cloaca": 5479,
      "distal": 5480,
      "variations": 5481,
      "graphy": 5482,
      "ologic": 5483,
      "starches": 5484,
      "iceps": 5485,
      "primitive": 5486,
      "drain": 5487,
      "decreased": 5488,
      "Cardi": 5489,
      "providing": 5490,
      "thalpy": 5491,
      "runoff": 5492,
      "cartilaginous": 5493,
      "storm": 5494,
      "detected": 5495,
      "trigger": 5496,
      "microscopes": 5497,
      "oderm": 5498,
      "ventricular": 5499,
      "See": 5500,
      "studied": 5501,
      "cycling": 5502,
      "migrate": 5503,
      "aspects": 5504,
      "synapses": 5505,
      "magnesium": 5506,
      "iodine": 5507,
      "follicle": 5508,
      "complementary": 5509,
      "yield": 5510,
      "reefs": 5511,
      "Physical": 5512,
      "Chemistry": 5513,
      "appendages": 5514,
      "sphincter": 5515,
      "47": 5516,
      "Ce": 5517,
      "Dec": 5518,
      "FSH": 5519,
      "Jupiter": 5520,
      "Law": 5521,
      "N2": 5522,
      "Our": 5523,
      "Ter": 5524,
      "coc": 5525,
      "gall": 5526,
      "hing": 5527,
      "ptive": 5528,
      "rule": 5529,
      "rna": 5530,
      "sink": 5531,
      "wrap": 5532,
      "thic": 5533,
      "theno": 5534,
      "reasons": 5535,
      "ortic": 5536,
      "rods": 5537,
      "tium": 5538,
      "tool": 5539,
      "ellip": 5540,
      "spid": 5541,
      "irical": 5542,
      "umes": 5543,
      "dew": 5544,
      "depres": 5545,
      "lobe": 5546,
      "loem": 5547,
      "kets": 5548,
      "cars": 5549,
      "vesicle": 5550,
      "cook": 5551,
      "raise": 5552,
      "weed": 5553,
      "months": 5554,
      "obacter": 5555,
      "interpre": 5556,
      "interstitial": 5557,
      "valve": 5558,
      "phosis": 5559,
      "frame": 5560,
      "stomata": 5561,
      "vertebra": 5562,
      "steam": 5563,
      "join": 5564,
      "groundwater": 5565,
      "steroid": 5566,
      "fishes": 5567,
      "encoded": 5568,
      "Prokaryotes": 5569,
      "observe": 5570,
      "mission": 5571,
      "molds": 5572,
      "patric": 5573,
      "slows": 5574,
      "testing": 5575,
      "drive": 5576,
      "purposes": 5577,
      "pushes": 5578,
      "techn": 5579,
      "significantly": 5580,
      "pelvis": 5581,
      "loops": 5582,
      "cerebral": 5583,
      "ympathetic": 5584,
      "North": 5585,
      "medicine": 5586,
      "finger": 5587,
      "ligament": 5588,
      "Small": 5589,
      "permanent": 5590,
      "Additionally": 5591,
      "nidarians": 5592,
      "favor": 5593,
      "Greek": 5594,
      "tremend": 5595,
      "31": 5596,
      "37": 5597,
      "99": 5598,
      "Are": 5599,
      "Cat": 5600,
      "Cur": 5601,
      "Golgi": 5602,
      "Sil": 5603,
      "bing": 5604,
      "cot": 5605,
      "doc": 5606,
      "ethyl": 5607,
      "gel": 5608,
      "gir": 5609,
      "gastro": 5610,
      "ned": 5611,
      "pite": 5612,
      "won": 5613,
      "yeast": 5614,
      "thood": 5615,
      "removing": 5616,
      "erts": 5617,
      "orient": 5618,
      "ley": 5619,
      "arp": 5620,
      "arms": 5621,
      "oud": 5622,
      "oman": 5623,
      "idy": 5624,
      "motions": 5625,
      "cha": 5626,
      "ulus": 5627,
      "concer": 5628,
      "spind": 5629,
      "bey": 5630,
      "began": 5631,
      "urea": 5632,
      "thermo": 5633,
      "cancers": 5634,
      "immediately": 5635,
      "phrine": 5636,
      "reson": 5637,
      "apes": 5638,
      "dog": 5639,
      "curv": 5640,
      "aceous": 5641,
      "insic": 5642,
      "atures": 5643,
      "thanol": 5644,
      "biosis": 5645,
      "crest": 5646,
      "particip": 5647,
      "hydrostatic": 5648,
      "hydrophilic": 5649,
      "previous": 5650,
      "simult": 5651,
      "trachea": 5652,
      "closes": 5653,
      "echnology": 5654,
      "axial": 5655,
      "sternum": 5656,
      "domains": 5657,
      "pitch": 5658,
      "models": 5659,
      "hood": 5660,
      "imentary": 5661,
      "supported": 5662,
      "window": 5663,
      "parasitic": 5664,
      "peptides": 5665,
      "hetero": 5666,
      "strike": 5667,
      "question": 5668,
      "timate": 5669,
      "crocodi": 5670,
      "sinks": 5671,
      "vacuoles": 5672,
      "phenomena": 5673,
      "ancestors": 5674,
      "heavier": 5675,
      "tells": 5676,
      "annel": 5677,
      "accurate": 5678,
      "destruction": 5679,
      "Prim": 5680,
      "mosses": 5681,
      "osmolarity": 5682,
      "Amphibians": 5683,
      "Minerals": 5684,
      "emissions": 5685,
      "Bre": 5686,
      "Early": 5687,
      "Heat": 5688,
      "Ions": 5689,
      "Pa": 5690,
      "Rel": 5691,
      "Sat": 5692,
      "Str": 5693,
      "Using": 5694,
      "bending": 5695,
      "cli": 5696,
      "hurric": 5697,
      "nel": 5698,
      "nour": 5699,
      "redi": 5700,
      "rely": 5701,
      "refract": 5702,
      "tip": 5703,
      "till": 5704,
      "asion": 5705,
      "heli": 5706,
      "ingredi": 5707,
      "semic": 5708,
      "movable": 5709,
      "amyl": 5710,
      "spots": 5711,
      "behave": 5712,
      "unable": 5713,
      "unlike": 5714,
      "exhal": 5715,
      "vertical": 5716,
      "perf": 5717,
      "othermal": 5718,
      "cava": 5719,
      "aceans": 5720,
      "endocytosis": 5721,
      "obvious": 5722,
      "colle": 5723,
      "hiz": 5724,
      "phyla": 5725,
      "vena": 5726,
      "extension": 5727,
      "mining": 5728,
      "northern": 5729,
      "germin": 5730,
      "tility": 5731,
      "combines": 5732,
      "combinations": 5733,
      "inflam": 5734,
      "fourth": 5735,
      "encing": 5736,
      "Protis": 5737,
      "alkaline": 5738,
      "milli": 5739,
      "reached": 5740,
      "According": 5741,
      "running": 5742,
      "benefit": 5743,
      "circuits": 5744,
      "connection": 5745,
      "influences": 5746,
      "latitude": 5747,
      "shoulder": 5748,
      "harves": 5749,
      "adaptation": 5750,
      "consumption": 5751,
      "efficiency": 5752,
      "distributed": 5753,
      "mammalian": 5754,
      "photons": 5755,
      "temporal": 5756,
      "compartment": 5757,
      "Mollusks": 5758,
      "situation": 5759,
      "improve": 5760,
      "Similarly": 5761,
      "lifesty": 5762,
      "triglycerides": 5763,
      "appropriate": 5764,
      "elliptical": 5765,
      "helix": 5766,
      "\",": 5767,
      "2H": 5768,
      "Cer": 5769,
      "Cap": 5770,
      "Gal": 5771,
      "Jo": 5772,
      "Lew": 5773,
      "Move": 5774,
      "Now": 5775,
      "Name": 5776,
      "Ph": 5777,
      "Ru": 5778,
      "Sh": 5779,
      "cis": 5780,
      "cit": 5781,
      "flies": 5782,
      "ibr": 5783,
      "mamm": 5784,
      "nad": 5785,
      "ozo": 5786,
      "slip": 5787,
      "samples": 5788,
      "tect": 5789,
      "trough": 5790,
      "uous": 5791,
      "zene": 5792,
      "rem": 5793,
      "remo": 5794,
      "enor": 5795,
      "tour": 5796,
      "assu": 5797,
      "ascular": 5798,
      "heres": 5799,
      "chitin": 5800,
      "promin": 5801,
      "lyso": 5802,
      "amen": 5803,
      "spend": 5804,
      "beam": 5805,
      "irregular": 5806,
      "unknown": 5807,
      "existing": 5808,
      "therm": 5809,
      "canals": 5810,
      "perist": 5811,
      "phloem": 5812,
      "feathers": 5813,
      "brings": 5814,
      "covery": 5815,
      "monotre": 5816,
      "oblasts": 5817,
      "soon": 5818,
      "reactivity": 5819,
      "vix": 5820,
      "fungal": 5821,
      "extends": 5822,
      "heats": 5823,
      "lization": 5824,
      "femur": 5825,
      "Produc": 5826,
      "Prokaryotic": 5827,
      "alysis": 5828,
      "intestines": 5829,
      "eats": 5830,
      "polypeptide": 5831,
      "moles": 5832,
      "heads": 5833,
      "openings": 5834,
      "powerful": 5835,
      "Carbohyd": 5836,
      "html": 5837,
      "myosin": 5838,
      "Cellular": 5839,
      "collap": 5840,
      "oldest": 5841,
      "rotate": 5842,
      "pumped": 5843,
      "parasympathetic": 5844,
      "Syn": 5845,
      "drops": 5846,
      "childbirth": 5847,
      "excreted": 5848,
      "eruption": 5849,
      "empirical": 5850,
      "spongy": 5851,
      "ynamic": 5852,
      "aspect": 5853,
      "burst": 5854,
      "occupy": 5855,
      "Regulation": 5856,
      "excited": 5857,
      "dinosaurs": 5858,
      "dramatically": 5859,
      "suggests": 5860,
      "Ribo": 5861,
      "exoskeleton": 5862,
      "epididy": 5863,
      "bubbles": 5864,
      "artificial": 5865,
      "Particles": 5866,
      "accepted": 5867,
      "amorphous": 5868,
      "Lewis": 5869,
      "mammary": 5870,
      "enormous": 5871,
      "):": 5872,
      "Long": 5873,
      "Mel": 5874,
      "Neu": 5875,
      "Ul": 5876,
      "lides": 5877,
      "oval": 5878,
      "rite": 5879,
      "vag": 5880,
      "wound": 5881,
      "inhibits": 5882,
      "refr": 5883,
      "ondr": 5884,
      "istem": 5885,
      "edges": 5886,
      "itudes": 5887,
      "omic": 5888,
      "idi": 5889,
      "track": 5890,
      "umbil": 5891,
      "exit": 5892,
      "neon": 5893,
      "igneous": 5894,
      "bry": 5895,
      "brach": 5896,
      "discover": 5897,
      "undra": 5898,
      "curves": 5899,
      "volta": 5900,
      "subunits": 5901,
      "crete": 5902,
      "agon": 5903,
      "encephal": 5904,
      "possi": 5905,
      "worts": 5906,
      "dermal": 5907,
      "cervix": 5908,
      "athy": 5909,
      "generator": 5910,
      "urning": 5911,
      "effec": 5912,
      "bacterium": 5913,
      "capsu": 5914,
      "salty": 5915,
      "gray": 5916,
      "electronic": 5917,
      "metalloids": 5918,
      "drug": 5919,
      "decreasing": 5920,
      "powder": 5921,
      "easts": 5922,
      "studying": 5923,
      "Others": 5924,
      "switch": 5925,
      "account": 5926,
      "fixation": 5927,
      "vectors": 5928,
      "Hemo": 5929,
      "NaCl": 5930,
      "pelvic": 5931,
      "flexion": 5932,
      "alternate": 5933,
      "check": 5934,
      "alveolar": 5935,
      "adulthood": 5936,
      "evaporates": 5937,
      "chool": 5938,
      "throat": 5939,
      "activate": 5940,
      "Protein": 5941,
      "promoter": 5942,
      "rarely": 5943,
      "Cycle": 5944,
      "allergies": 5945,
      "satellite": 5946,
      "laboratory": 5947,
      "photon": 5948,
      "analog": 5949,
      "estimated": 5950,
      "contributes": 5951,
      "neighbor": 5952,
      "Group": 5953,
      "spindle": 5954,
      "umbilical": 5955,
      "42": 5956,
      "Did": 5957,
      "Fi": 5958,
      "Hal": 5959,
      "Sup": 5960,
      "Vari": 5961,
      "crow": 5962,
      "dor": 5963,
      "denti": 5964,
      "fair": 5965,
      "farm": 5966,
      "fallo": 5967,
      "gran": 5968,
      "list": 5969,
      "larynx": 5970,
      "psy": 5971,
      "slower": 5972,
      "uts": 5973,
      "invent": 5974,
      "thelial": 5975,
      "theories": 5976,
      "enthalpy": 5977,
      "hex": 5978,
      "itable": 5979,
      "ittle": 5980,
      "semin": 5981,
      "springs": 5982,
      "unpaired": 5983,
      "degre": 5984,
      "genus": 5985,
      "gence": 5986,
      "alsis": 5987,
      "perhaps": 5988,
      "calories": 5989,
      "pea": 5990,
      "discovery": 5991,
      "shed": 5992,
      "sist": 5993,
      "hypot": 5994,
      "planes": 5995,
      "compare": 5996,
      "ensation": 5997,
      "ifers": 5998,
      "sublimation": 5999,
      "bili": 6000,
      "synovi": 6001,
      "radial": 6002,
      "goal": 6003,
      "minutes": 6004,
      "ranges": 6005,
      "tends": 6006,
      "nonliving": 6007,
      "placental": 6008,
      "supplies": 6009,
      "chloric": 6010,
      "Also": 6011,
      "filtration": 6012,
      "marg": 6013,
      "cruc": 6014,
      "domain": 6015,
      "merci": 6016,
      "expands": 6017,
      "expensive": 6018,
      "regulates": 6019,
      "appeared": 6020,
      "stimulating": 6021,
      "Changes": 6022,
      "pian": 6023,
      "worldwide": 6024,
      "attracts": 6025,
      "branched": 6026,
      "storing": 6027,
      "discs": 6028,
      "identity": 6029,
      "pulling": 6030,
      "Arter": 6031,
      "Organs": 6032,
      "alternative": 6033,
      "successful": 6034,
      "sinuses": 6035,
      "experiences": 6036,
      "inertia": 6037,
      "cyclic": 6038,
      "Eukaryotic": 6039,
      "promote": 6040,
      "penis": 6041,
      "symbols": 6042,
      "mirrors": 6043,
      "ridge": 6044,
      "Muscles": 6045,
      "voir": 6046,
      "dramatic": 6047,
      "techniques": 6048,
      "phagocytosis": 6049,
      "introduced": 6050,
      "Lymph": 6051,
      "adenine": 6052,
      "Summary": 6053,
      "vehicles": 6054,
      "Sperm": 6055,
      "oncogenes": 6056,
      "beyond": 6057,
      "Ribosomes": 6058,
      "fallopian": 6059,
      "degrees": 6060,
      "synovial": 6061,
      ");": 6062,
      "Bes": 6063,
      "Fem": 6064,
      "Gre": 6065,
      "HCl": 6066,
      "Identi": 6067,
      "MA": 6068,
      "Mei": 6069,
      "Pu": 6070,
      "Ro": 6071,
      "Si": 6072,
      "Sed": 6073,
      "Ste": 6074,
      "Vascular": 6075,
      "af": 6076,
      "brought": 6077,
      "cam": 6078,
      "glow": 6079,
      "gae": 6080,
      "len": 6081,
      "mine": 6082,
      "none": 6083,
      "patic": 6084,
      "pick": 6085,
      "rhy": 6086,
      "rhiz": 6087,
      "sou": 6088,
      "inks": 6089,
      "instant": 6090,
      "intracellular": 6091,
      "report": 6092,
      "atria": 6093,
      "align": 6094,
      "road": 6095,
      "aria": 6096,
      "tips": 6097,
      "hepatic": 6098,
      "acy": 6099,
      "item": 6100,
      "entry": 6101,
      "supers": 6102,
      "moid": 6103,
      "prophase": 6104,
      "propel": 6105,
      "ama": 6106,
      "beet": 6107,
      "bears": 6108,
      "extract": 6109,
      "lobes": 6110,
      "imental": 6111,
      "igation": 6112,
      "tet": 6113,
      "rent": 6114,
      "inegar": 6115,
      "Intro": 6116,
      "shiny": 6117,
      "sharp": 6118,
      "cage": 6119,
      "weigh": 6120,
      "gluc": 6121,
      "transl": 6122,
      "generating": 6123,
      "arities": 6124,
      "breeding": 6125,
      "extended": 6126,
      "equally": 6127,
      "chromosomal": 6128,
      "limiting": 6129,
      "reproducing": 6130,
      "started": 6131,
      "transpiration": 6132,
      "antibody": 6133,
      "folds": 6134,
      "physically": 6135,
      "Almost": 6136,
      "Algae": 6137,
      "vaso": 6138,
      "dissolving": 6139,
      "orbiting": 6140,
      "expel": 6141,
      "expected": 6142,
      "ondro": 6143,
      "rainfall": 6144,
      "rotates": 6145,
      "insulation": 6146,
      "Here": 6147,
      "interest": 6148,
      "Covalent": 6149,
      "arrangements": 6150,
      "vibrations": 6151,
      "epithelium": 6152,
      "osteoporosis": 6153,
      "fracture": 6154,
      "Period": 6155,
      "project": 6156,
      "ponds": 6157,
      "swimming": 6158,
      "induced": 6159,
      "juices": 6160,
      "dehydes": 6161,
      "socket": 6162,
      "corresponds": 6163,
      "follicles": 6164,
      "wetlands": 6165,
      "hesion": 6166,
      "destructive": 6167,
      "categories": 6168,
      "Genetic": 6169,
      "lithosphere": 6170,
      "instance": 6171,
      "constriction": 6172,
      "explosive": 6173,
      "Fossil": 6174,
      "vorous": 6175,
      "Archaea": 6176,
      "lights": 6177,
      "rubber": 6178,
      "tentacles": 6179,
      "Skeletal": 6180,
      "amylase": 6181,
      "capsule": 6182,
      "Introduction": 6183,
      "1000": 6184,
      "300": 6185,
      "AC": 6186,
      "ADH": 6187,
      "Ech": 6188,
      "Fl": 6189,
      "Latin": 6190,
      "Mater": 6191,
      "Pre": 6192,
      "Wind": 6193,
      "aim": 6194,
      "bats": 6195,
      "cubic": 6196,
      "ga": 6197,
      "gum": 6198,
      "ky": 6199,
      "kel": 6200,
      "nm": 6201,
      "scar": 6202,
      "sca": 6203,
      "instruc": 6204,
      "repel": 6205,
      "altered": 6206,
      "orange": 6207,
      "tible": 6208,
      "tooth": 6209,
      "edness": 6210,
      "itory": 6211,
      "enty": 6212,
      "mode": 6213,
      "lime": 6214,
      "ulna": 6215,
      "beach": 6216,
      "urt": 6217,
      "gered": 6218,
      "geologic": 6219,
      "lots": 6220,
      "abili": 6221,
      "commerci": 6222,
      "adoles": 6223,
      "oco": 6224,
      "anten": 6225,
      "utro": 6226,
      "content": 6227,
      "stry": 6228,
      "achieve": 6229,
      "unders": 6230,
      "obes": 6231,
      "ensory": 6232,
      "intel": 6233,
      "interacts": 6234,
      "intervertebral": 6235,
      "desert": 6236,
      "differently": 6237,
      "phytes": 6238,
      "hydrochloric": 6239,
      "transmission": 6240,
      "previously": 6241,
      "NAD": 6242,
      "magneti": 6243,
      "stig": 6244,
      "foreign": 6245,
      "mice": 6246,
      "grouped": 6247,
      "usual": 6248,
      "primates": 6249,
      "infl": 6250,
      "film": 6251,
      "sheet": 6252,
      "pics": 6253,
      "cytokinesis": 6254,
      "manner": 6255,
      "carrier": 6256,
      "archaea": 6257,
      "oppositely": 6258,
      "ovulation": 6259,
      "Science": 6260,
      "Acid": 6261,
      "lumbar": 6262,
      "phae": 6263,
      "crustaceans": 6264,
      "conserve": 6265,
      "thorax": 6266,
      "tumors": 6267,
      "write": 6268,
      "decomposition": 6269,
      "principal": 6270,
      "colony": 6271,
      "codon": 6272,
      "coding": 6273,
      "condenses": 6274,
      "Often": 6275,
      "Species": 6276,
      "spontaneously": 6277,
      "week": 6278,
      "designed": 6279,
      "social": 6280,
      "poisoning": 6281,
      "vegetation": 6282,
      "minimum": 6283,
      "ampli": 6284,
      "technique": 6285,
      "nephrons": 6286,
      "Hydrocarbons": 6287,
      "articulates": 6288,
      "reservoir": 6289,
      "Thermal": 6290,
      "equivalent": 6291,
      "acquired": 6292,
      "agriculture": 6293,
      "Solutions": 6294,
      "phylogenetic": 6295,
      "Digestion": 6296,
      "turbine": 6297,
      "convex": 6298,
      "sporangia": 6299,
      "Insects": 6300,
      "subsequent": 6301,
      "trunk": 6302,
      "Venus": 6303,
      "tremendous": 6304,
      "college": 6305,
      "lifestyle": 6306,
      "hypotonic": 6307,
      "Besides": 6308,
      "Meiosis": 6309,
      ",.": 6310,
      "Fur": 6311,
      "Ig": 6312,
      "Mg": 6313,
      "Osmo": 6314,
      "Smo": 6315,
      "Vit": 6316,
      "bac": 6317,
      "bula": 6318,
      "hous": 6319,
      "ii": 6320,
      "iet": 6321,
      "kg": 6322,
      "mates": 6323,
      "nect": 6324,
      "pou": 6325,
      "pup": 6326,
      "shel": 6327,
      "tRNA": 6328,
      "thigh": 6329,
      "ina": 6330,
      "inward": 6331,
      "theore": 6332,
      "anine": 6333,
      "anemia": 6334,
      "leen": 6335,
      "tids": 6336,
      "toplankton": 6337,
      "station": 6338,
      "itism": 6339,
      "oma": 6340,
      "progres": 6341,
      "lift": 6342,
      "tras": 6343,
      "terr": 6344,
      "terone": 6345,
      "ultimate": 6346,
      "spore": 6347,
      "spleen": 6348,
      "beings": 6349,
      "unless": 6350,
      "max": 6351,
      "oding": 6352,
      "exception": 6353,
      "versal": 6354,
      "ticle": 6355,
      "ime": 6356,
      "petal": 6357,
      "carcin": 6358,
      "ometric": 6359,
      "cooper": 6360,
      "gesterone": 6361,
      "coli": 6362,
      "collection": 6363,
      "processing": 6364,
      "posite": 6365,
      "ffers": 6366,
      "berg": 6367,
      "elevation": 6368,
      "physis": 6369,
      "malle": 6370,
      "clusion": 6371,
      "tests": 6372,
      "prepar": 6373,
      "practi": 6374,
      "notice": 6375,
      "minis": 6376,
      "newborn": 6377,
      "buoy": 6378,
      "salamanders": 6379,
      "graphs": 6380,
      "steep": 6381,
      "tornad": 6382,
      "electrostatic": 6383,
      "turned": 6384,
      "microwaves": 6385,
      "marsup": 6386,
      "mixing": 6387,
      "dependently": 6388,
      "eaten": 6389,
      "Plas": 6390,
      "angu": 6391,
      "angles": 6392,
      "decaying": 6393,
      "preventing": 6394,
      "exert": 6395,
      "midline": 6396,
      "repeats": 6397,
      "harder": 6398,
      "strikes": 6399,
      "injuries": 6400,
      "aryngeal": 6401,
      "sweet": 6402,
      "predicted": 6403,
      "Bacterial": 6404,
      "phenotypes": 6405,
      "slits": 6406,
      "sliding": 6407,
      "fractures": 6408,
      "salivary": 6409,
      "Special": 6410,
      "medicines": 6411,
      "facilitated": 6412,
      "compressed": 6413,
      "Waves": 6414,
      "established": 6415,
      "ctica": 6416,
      "junction": 6417,
      "sightedness": 6418,
      "walking": 6419,
      "bronchioles": 6420,
      "multiplied": 6421,
      "physiological": 6422,
      "distinctive": 6423,
      "Transp": 6424,
      "ossification": 6425,
      "Nervous": 6426,
      "disturbance": 6427,
      "astronom": 6428,
      "valuable": 6429,
      "iolis": 6430,
      "nourish": 6431,
      "perfect": 6432,
      "tectonic": 6433,
      "rhyth": 6434,
      "Bones": 6435,
      "Dep": 6436,
      "Does": 6437,
      "Ground": 6438,
      "Hz": 6439,
      "Qu": 6440,
      "TER": 6441,
      "Tissu": 6442,
      "Whe": 6443,
      "bands": 6444,
      "cured": 6445,
      "dend": 6446,
      "fal": 6447,
      "hun": 6448,
      "ibility": 6449,
      "jum": 6450,
      "lists": 6451,
      "nant": 6452,
      "ustry": 6453,
      "vul": 6454,
      "vot": 6455,
      "independently": 6456,
      "reve": 6457,
      "rebs": 6458,
      "anem": 6459,
      "eroded": 6460,
      "enance": 6461,
      "ordered": 6462,
      "tibi": 6463,
      "tilize": 6464,
      "icted": 6465,
      "stax": 6466,
      "stays": 6467,
      "elbow": 6468,
      "search": 6469,
      "ione": 6470,
      "olfactory": 6471,
      "ida": 6472,
      "fornia": 6473,
      "ames": 6474,
      "amma": 6475,
      "ults": 6476,
      "cone": 6477,
      "iratory": 6478,
      "unite": 6479,
      "ember": 6480,
      "deposition": 6481,
      "thers": 6482,
      "geny": 6483,
      "complicated": 6484,
      "allergy": 6485,
      "romatic": 6486,
      "tetra": 6487,
      "tetrap": 6488,
      "kept": 6489,
      "calor": 6490,
      "coiled": 6491,
      "strongest": 6492,
      "webs": 6493,
      "optical": 6494,
      "moreg": 6495,
      "aked": 6496,
      "processed": 6497,
      "industry": 6498,
      "lls": 6499,
      "clay": 6500,
      "istance": 6501,
      "generates": 6502,
      "extensions": 6503,
      "makeup": 6504,
      "aturation": 6505,
      "newly": 6506,
      "traction": 6507,
      "ologically": 6508,
      "showing": 6509,
      "define": 6510,
      "electrochemical": 6511,
      "filters": 6512,
      "reactor": 6513,
      "universal": 6514,
      "certainty": 6515,
      "regulating": 6516,
      "conductivity": 6517,
      "Plate": 6518,
      "Moving": 6519,
      "stimulation": 6520,
      "openstax": 6521,
      "express": 6522,
      "turbul": 6523,
      "float": 6524,
      "reaching": 6525,
      "Scientific": 6526,
      "lumen": 6527,
      "connections": 6528,
      "spreading": 6529,
      "purple": 6530,
      "collectively": 6531,
      "laser": 6532,
      "focuses": 6533,
      "harmed": 6534,
      "alloys": 6535,
      "hypotheses": 6536,
      "gradual": 6537,
      "originate": 6538,
      "pancreatic": 6539,
      "CHAP": 6540,
      "fitness": 6541,
      "Polar": 6542,
      "amniotes": 6543,
      "facilitates": 6544,
      "Calvin": 6545,
      "reflexes": 6546,
      "coordination": 6547,
      "tidal": 6548,
      "Equator": 6549,
      "practical": 6550,
      "geographic": 6551,
      "benzene": 6552,
      "propag": 6553,
      "arent": 6554,
      "Magne": 6555,
      "seismic": 6556,
      "genotype": 6557,
      "incorpor": 6558,
      "STIs": 6559,
      "costal": 6560,
      "repulsion": 6561,
      "semipermeable": 6562,
      "cyanobacter": 6563,
      "procedure": 6564,
      "arterioles": 6565,
      "Reptiles": 6566,
      "Saturn": 6567,
      "peristalsis": 6568,
      "Carbohydrates": 6569,
      "neighboring": 6570,
      "fairly": 6571,
      "Identify": 6572,
      "stigma": 6573,
      "openstaxcollege": 6574,
      "CHAPTER": 6575,
      "43": 6576,
      "Asexual": 6577,
      "Cali": 6578,
      "Fol": 6579,
      "IV": 6580,
      "Much": 6581,
      "Usu": 6582,
      "Work": 6583,
      "aro": 6584,
      "aves": 6585,
      "dynamics": 6586,
      "loud": 6587,
      "langu": 6588,
      "pse": 6589,
      "pect": 6590,
      "rin": 6591,
      "son": 6592,
      "sort": 6593,
      "s22": 6594,
      "school": 6595,
      "west": 6596,
      "onin": 6597,
      "era": 6598,
      "leys": 6599,
      "accomp": 6600,
      "mois": 6601,
      "chall": 6602,
      "dilu": 6603,
      "amide": 6604,
      "bear": 6605,
      "ilarities": 6606,
      "cephal": 6607,
      "exocytosis": 6608,
      "verages": 6609,
      "degrad": 6610,
      "depolarization": 6611,
      "losing": 6612,
      "meat": 6613,
      "quakes": 6614,
      "brie": 6615,
      "brittle": 6616,
      "waters": 6617,
      "Those": 6618,
      "dosterone": 6619,
      "coelom": 6620,
      "lowers": 6621,
      "diffuses": 6622,
      "hyphae": 6623,
      "oblast": 6624,
      "somewhat": 6625,
      "carbonic": 6626,
      "chemists": 6627,
      "crests": 6628,
      "atives": 6629,
      "desmo": 6630,
      "deserts": 6631,
      "metaphase": 6632,
      "numer": 6633,
      "derm": 6634,
      "sciences": 6635,
      "tention": 6636,
      "singular": 6637,
      "nitrate": 6638,
      "axle": 6639,
      "supplied": 6640,
      "lized": 6641,
      "affinity": 6642,
      "meristem": 6643,
      "maintenance": 6644,
      "seedless": 6645,
      "observer": 6646,
      "Commun": 6647,
      "Connec": 6648,
      "Conversely": 6649,
      "pivot": 6650,
      "anchor": 6651,
      "cooling": 6652,
      "apply": 6653,
      "floating": 6654,
      "contractile": 6655,
      "rainbow": 6656,
      "Cellulose": 6657,
      "seawater": 6658,
      "existence": 6659,
      "zygous": 6660,
      "hosts": 6661,
      "columns": 6662,
      "flatworms": 6663,
      "explained": 6664,
      "bilateral": 6665,
      "confined": 6666,
      "precipitate": 6667,
      "chromatin": 6668,
      "flying": 6669,
      "wires": 6670,
      "frozen": 6671,
      "clusters": 6672,
      "chamber": 6673,
      "touching": 6674,
      "Wave": 6675,
      "Neur": 6676,
      "hybridization": 6677,
      "abdomen": 6678,
      "grasses": 6679,
      "ofilaments": 6680,
      "electrolyte": 6681,
      "Visible": 6682,
      "glycerol": 6683,
      "enhance": 6684,
      "clotting": 6685,
      "reticulum": 6686,
      "diamond": 6687,
      "snakes": 6688,
      "industrial": 6689,
      "messenger": 6690,
      "thickness": 6691,
      "Certain": 6692,
      "ozoic": 6693,
      "Further": 6694,
      "pouch": 6695,
      "practice": 6696,
      "Whether": 6697,
      "Usually": 6698,
      "53": 6699,
      "Bo": 6700,
      "Dom": 6701,
      "EM": 6702,
      "Gram": 6703,
      "Hem": 6704,
      "Hair": 6705,
      "Ice": 6706,
      "Kinetic": 6707,
      "Mass": 6708,
      "Plu": 6709,
      "Sch": 6710,
      "Val": 6711,
      "bad": 6712,
      "fills": 6713,
      "homes": 6714,
      "jou": 6715,
      "p6": 6716,
      "sids": 6717,
      "venti": 6718,
      "vinegar": 6719,
      "wed": 6720,
      "woman": 6721,
      "”),": 6722,
      "inhabit": 6723,
      "invertebrate": 6724,
      "review": 6725,
      "reabsorption": 6726,
      "attem": 6727,
      "enlar": 6728,
      "asc": 6729,
      "asthma": 6730,
      "edes": 6731,
      "actose": 6732,
      "stell": 6733,
      "stances": 6734,
      "omnivores": 6735,
      "ionization": 6736,
      "veled": 6737,
      "dilute": 6738,
      "proof": 6739,
      "progesterone": 6740,
      "tru": 6741,
      "fort": 6742,
      "ams": 6743,
      "contour": 6744,
      "unic": 6745,
      "plaque": 6746,
      "extr": 6747,
      "deer": 6748,
      "details": 6749,
      "lock": 6750,
      "ticed": 6751,
      "imal": 6752,
      "pox": 6753,
      "neare": 6754,
      "phils": 6755,
      "pharyngeal": 6756,
      "otechnology": 6757,
      "tear": 6758,
      "ochem": 6759,
      "disappear": 6760,
      "dogs": 6761,
      "Insul": 6762,
      "sharks": 6763,
      "caro": 6764,
      "cavities": 6765,
      "acetic": 6766,
      "month": 6767,
      "belt": 6768,
      "cyclo": 6769,
      "compris": 6770,
      "comprise": 6771,
      "biomass": 6772,
      "century": 6773,
      "larva": 6774,
      "glomer": 6775,
      "physe": 6776,
      "venous": 6777,
      "termed": 6778,
      "frontal": 6779,
      "minute": 6780,
      "stiff": 6781,
      "ranging": 6782,
      "completed": 6783,
      "laid": 6784,
      "inescence": 6785,
      "buds": 6786,
      "involuntary": 6787,
      "elemental": 6788,
      "microtubules": 6789,
      "separates": 6790,
      "avage": 6791,
      "encode": 6792,
      "traveling": 6793,
      "convergent": 6794,
      "sequently": 6795,
      "predator": 6796,
      "tested": 6797,
      "weaker": 6798,
      "150": 6799,
      "catalyze": 6800,
      "parasite": 6801,
      "consistent": 6802,
      "Arctic": 6803,
      "illustrates": 6804,
      "biggest": 6805,
      "endoplasmic": 6806,
      "irdle": 6807,
      "Organic": 6808,
      "Def": 6809,
      "ronutrients": 6810,
      "darker": 6811,
      "cheese": 6812,
      "discuss": 6813,
      "dietary": 6814,
      "alcohols": 6815,
      "Diffusion": 6816,
      "vibrating": 6817,
      "frost": 6818,
      "Before": 6819,
      "activates": 6820,
      "hypertonic": 6821,
      "billions": 6822,
      "principles": 6823,
      "precise": 6824,
      "fault": 6825,
      "instrument": 6826,
      "polymerase": 6827,
      "stretched": 6828,
      "segmented": 6829,
      "situations": 6830,
      "estimate": 6831,
      "shoot": 6832,
      "centrioles": 6833,
      "Fossils": 6834,
      "Respiratory": 6835,
      "Immun": 6836,
      "drinking": 6837,
      "centimeters": 6838,
      "Mitosis": 6839,
      "bundle": 6840,
      "rosclerosis": 6841,
      "accommod": 6842,
      "intrinsic": 6843,
      "melanin": 6844,
      "neumonia": 6845,
      "Protists": 6846,
      "thermometer": 6847,
      "epididymis": 6848,
      "refriger": 6849,
      "crucial": 6850,
      "Echinoderms": 6851,
      "nectar": 6852,
      "California": 6853,
      "moisture": 6854,
      "Pluto": 6855,
      "comprised": 6856,
      "95": 6857,
      "Ap": 6858,
      "Afr": 6859,
      "Dise": 6860,
      "Em": 6861,
      "Imagine": 6862,
      "Men": 6863,
      "Mechan": 6864,
      "PO": 6865,
      "Sing": 6866,
      "Sound": 6867,
      "Warm": 6868,
      "ah": 6869,
      "baceous": 6870,
      "cand": 6871,
      "ej": 6872,
      "fin": 6873,
      "finally": 6874,
      "gem": 6875,
      "jug": 6876,
      "kills": 6877,
      "nest": 6878,
      "sine": 6879,
      "tone": 6880,
      "uation": 6881,
      "udo": 6882,
      "wild": 6883,
      "yol": 6884,
      "ino": 6885,
      "inance": 6886,
      "ana": 6887,
      "ofu": 6888,
      "arc": 6889,
      "arises": 6890,
      "tiary": 6891,
      "assist": 6892,
      "suffer": 6893,
      "lighter": 6894,
      "forced": 6895,
      "concave": 6896,
      "spl": 6897,
      "beat": 6898,
      "beak": 6899,
      "bearing": 6900,
      "exchanged": 6901,
      "hages": 6902,
      "tices": 6903,
      "perception": 6904,
      "otonic": 6905,
      "ichi": 6906,
      "bonucle": 6907,
      "twice": 6908,
      "ocar": 6909,
      "carni": 6910,
      "lubr": 6911,
      "Incre": 6912,
      "notation": 6913,
      "raft": 6914,
      "spect": 6915,
      "specifically": 6916,
      "optic": 6917,
      "opens": 6918,
      "boils": 6919,
      "intense": 6920,
      "intake": 6921,
      "substi": 6922,
      "substrate": 6923,
      "cleavage": 6924,
      "matory": 6925,
      "maturation": 6926,
      "incredi": 6927,
      "osto": 6928,
      "ceram": 6929,
      "trium": 6930,
      "radiate": 6931,
      "mesosphere": 6932,
      "00s": 6933,
      "corals": 6934,
      "corne": 6935,
      "acidity": 6936,
      "similarities": 6937,
      "stops": 6938,
      "plastids": 6939,
      "ventral": 6940,
      "media": 6941,
      "paths": 6942,
      "fold": 6943,
      "continually": 6944,
      "Alk": 6945,
      "marks": 6946,
      "currently": 6947,
      "symbiosis": 6948,
      "drains": 6949,
      "fatal": 6950,
      "halogens": 6951,
      "Proto": 6952,
      "sheath": 6953,
      "colorless": 6954,
      "nitrogenous": 6955,
      "Weather": 6956,
      "developmental": 6957,
      "fertilizer": 6958,
      "freezes": 6959,
      "mycel": 6960,
      "ician": 6961,
      "pyram": 6962,
      "prevented": 6963,
      "Acceler": 6964,
      "scopic": 6965,
      "branching": 6966,
      "keeping": 6967,
      "insulators": 6968,
      "affecting": 6969,
      "modify": 6970,
      "spreads": 6971,
      "asteroid": 6972,
      "drives": 6973,
      "driven": 6974,
      "Starch": 6975,
      "sacrum": 6976,
      "heterogeneous": 6977,
      "deadly": 6978,
      "countries": 6979,
      "phenotypic": 6980,
      "researchers": 6981,
      "filling": 6982,
      "radon": 6983,
      "Typ": 6984,
      "cuticle": 6985,
      "lamy": 6986,
      "Molecular": 6987,
      "occupied": 6988,
      "recently": 6989,
      "compartments": 6990,
      "suspension": 6991,
      "jaws": 6992,
      "America": 6993,
      "Fluid": 6994,
      "neurotransmitters": 6995,
      "projections": 6996,
      "budding": 6997,
      "Amino": 6998,
      "scattered": 6999,
      "thermodynamics": 7000,
      "Liquids": 7001,
      "jellyfish": 7002,
      "thylakoid": 7003,
      "leukocytes": 7004,
      "metamorphosis": 7005,
      "scapula": 7006,
      "depression": 7007,
      "ethylene": 7008,
      "curvature": 7009,
      "participate": 7010,
      "simultaneously": 7011,
      "inflammatory": 7012,
      "prominent": 7013,
      "Producers": 7014,
      "athyroid": 7015,
      "amazing": 7016,
      "tetrahed": 7017,
      "language": 7018,
      "41": 7019,
      "App": 7020,
      "Body": 7021,
      "CD": 7022,
      "Cu": 7023,
      "Cent": 7024,
      "Clim": 7025,
      "Eff": 7026,
      "Home": 7027,
      "Med": 7028,
      "Nearly": 7029,
      "Pure": 7030,
      "RH": 7031,
      "Sul": 7032,
      "Uran": 7033,
      "Vi": 7034,
      "boun": 7035,
      "cough": 7036,
      "dynamic": 7037,
      "ethanol": 7038,
      "gone": 7039,
      "ified": 7040,
      "lact": 7041,
      "mand": 7042,
      "rofilaments": 7043,
      "sap": 7044,
      "soda": 7045,
      "tan": 7046,
      "tles": 7047,
      "tundra": 7048,
      "wider": 7049,
      "yeasts": 7050,
      "zard": 7051,
      "thinner": 7052,
      "inates": 7053,
      "recycling": 7054,
      "atm": 7055,
      "atal": 7056,
      "encloses": 7057,
      "hered": 7058,
      "itus": 7059,
      "semen": 7060,
      "entary": 7061,
      "foramen": 7062,
      "emi": 7063,
      "excell": 7064,
      "exceed": 7065,
      "debr": 7066,
      "deficiency": 7067,
      "abor": 7068,
      "megas": 7069,
      "resol": 7070,
      "ady": 7071,
      "oney": 7072,
      "disk": 7073,
      "Inside": 7074,
      "ship": 7075,
      "shiel": 7076,
      "focal": 7077,
      "inser": 7078,
      "colloid": 7079,
      "lightning": 7080,
      "iferous": 7081,
      "subatomic": 7082,
      "traveled": 7083,
      "mito": 7084,
      "corrhiz": 7085,
      "prefix": 7086,
      "decades": 7087,
      "horn": 7088,
      "pron": 7089,
      "NADH": 7090,
      "underwater": 7091,
      "capsid": 7092,
      "varian": 7093,
      "variables": 7094,
      "nonvascular": 7095,
      "potent": 7096,
      "transparent": 7097,
      "torque": 7098,
      "reacting": 7099,
      "skeletons": 7100,
      "blast": 7101,
      "flash": 7102,
      "alkenes": 7103,
      "cancerous": 7104,
      "oxidizing": 7105,
      "sensing": 7106,
      "shortest": 7107,
      "thinking": 7108,
      "mediated": 7109,
      "______": 7110,
      "indicated": 7111,
      "pushed": 7112,
      "latitudes": 7113,
      "triggered": 7114,
      "crosses": 7115,
      "focused": 7116,
      "consuming": 7117,
      "ketones": 7118,
      "tune": 7119,
      "Sea": 7120,
      "Seed": 7121,
      "Func": 7122,
      "receiver": 7123,
      "advantages": 7124,
      "slide": 7125,
      "innae": 7126,
      "analyze": 7127,
      "hydroxyl": 7128,
      "chambered": 7129,
      "induce": 7130,
      "recognized": 7131,
      "portal": 7132,
      "magnification": 7133,
      "prepared": 7134,
      "Paras": 7135,
      "stretching": 7136,
      "disturbed": 7137,
      "suspended": 7138,
      "American": 7139,
      "Structures": 7140,
      "seismo": 7141,
      "proximal": 7142,
      "Compared": 7143,
      "mathematical": 7144,
      "depleted": 7145,
      "Generally": 7146,
      "shift": 7147,
      "surprising": 7148,
      "Population": 7149,
      "denser": 7150,
      "Cardiac": 7151,
      "Terrestrial": 7152,
      "thenogenesis": 7153,
      "Movement": 7154,
      "encephalon": 7155,
      "analogous": 7156,
      "invented": 7157,
      "Green": 7158,
      "instructions": 7159,
      "commercial": 7160,
      "tibia": 7161,
      "Neurons": 7162,
      "unicellular": 7163,
      "Insulin": 7164,
      "yolk": 7165,
      "Climate": 7166,
      "heredity": 7167,
      "excellent": 7168,
      "debris": 7169,
      "Aqu": 7170,
      "Bases": 7171,
      "Burning": 7172,
      "Ep": 7173,
      "Fro": 7174,
      "Found": 7175,
      "Gen": 7176,
      "Hear": 7177,
      "Male": 7178,
      "Moder": 7179,
      "Rem": 7180,
      "Ser": 7181,
      "TH": 7182,
      "Wor": 7183,
      "fins": 7184,
      "glial": 7185,
      "imag": 7186,
      "jet": 7187,
      "km": 7188,
      "lone": 7189,
      "mL": 7190,
      "otion": 7191,
      "pas": 7192,
      "pts": 7193,
      "rules": 7194,
      "rites": 7195,
      "rhea": 7196,
      "scr": 7197,
      "went": 7198,
      "replacement": 7199,
      "anaphase": 7200,
      "onduc": 7201,
      "ering": 7202,
      "enoid": 7203,
      "aldehydes": 7204,
      "island": 7205,
      "isotonic": 7206,
      "array": 7207,
      "timal": 7208,
      "tobac": 7209,
      "assum": 7210,
      "ications": 7211,
      "acro": 7212,
      "story": 7213,
      "chick": 7214,
      "diure": 7215,
      "uncertainty": 7216,
      "loos": 7217,
      "impossible": 7218,
      "comotion": 7219,
      "pots": 7220,
      "fever": 7221,
      "brains": 7222,
      "brian": 7223,
      "occipit": 7224,
      "waterproof": 7225,
      "parathyroid": 7226,
      "sius": 7227,
      "Individ": 7228,
      "iest": 7229,
      "sharing": 7230,
      "differs": 7231,
      "hyaline": 7232,
      "asses": 7233,
      "optimal": 7234,
      "uptake": 7235,
      "surge": 7236,
      "intact": 7237,
      "ancelets": 7238,
      "viol": 7239,
      "biofil": 7240,
      "biochem": 7241,
      "interrup": 7242,
      "elevated": 7243,
      "phytoplankton": 7244,
      "Annel": 7245,
      "vention": 7246,
      "relates": 7247,
      "clus": 7248,
      "athle": 7249,
      "generators": 7250,
      "mesoderm": 7251,
      "precur": 7252,
      "grown": 7253,
      "directed": 7254,
      "equip": 7255,
      "potentially": 7256,
      "holding": 7257,
      "grain": 7258,
      "defend": 7259,
      "ickel": 7260,
      "signs": 7261,
      "infant": 7262,
      "ammation": 7263,
      "mixes": 7264,
      "absorbing": 7265,
      "arterial": 7266,
      "cytosol": 7267,
      "rophages": 7268,
      "thymus": 7269,
      "smoking": 7270,
      "classical": 7271,
      "attractions": 7272,
      "saw": 7273,
      "doub": 7274,
      "hairs": 7275,
      "rotational": 7276,
      "235": 7277,
      "received": 7278,
      "asteroids": 7279,
      "Hyper": 7280,
      "thicker": 7281,
      "collects": 7282,
      "Solar": 7283,
      "articular": 7284,
      "phosphory": 7285,
      "harmon": 7286,
      "conditioning": 7287,
      "Develop": 7288,
      "sulfuric": 7289,
      "erupts": 7290,
      "colonies": 7291,
      "vacuum": 7292,
      "replicated": 7293,
      "gradients": 7294,
      "lactic": 7295,
      "spherical": 7296,
      "dispersal": 7297,
      "Phosp": 7298,
      "blown": 7299,
      "rometer": 7300,
      "blades": 7301,
      "synapse": 7302,
      "radula": 7303,
      "Discus": 7304,
      "hundred": 7305,
      "Simple": 7306,
      "glacier": 7307,
      "Cyto": 7308,
      "facilitate": 7309,
      "spermatogenesis": 7310,
      "splitting": 7311,
      "telescope": 7312,
      "Volcan": 7313,
      "voice": 7314,
      "demonstrate": 7315,
      "hesive": 7316,
      "seems": 7317,
      "pollinators": 7318,
      "anatomy": 7319,
      "lithium": 7320,
      "investigation": 7321,
      "centripetal": 7322,
      "incorrect": 7323,
      "accumulate": 7324,
      "neurotransmitter": 7325,
      "Secondary": 7326,
      "niche": 7327,
      "precisely": 7328,
      "Glycolysis": 7329,
      "myelin": 7330,
      "Large": 7331,
      "corrected": 7332,
      "spiders": 7333,
      "removal": 7334,
      "monotremes": 7335,
      "Hemoglobin": 7336,
      "Various": 7337,
      "bilities": 7338,
      "trasound": 7339,
      "Hemisphere": 7340,
      "bonucleic": 7341,
      "Modern": 7342,
      "Remember": 7343,
      "44": 7344,
      "98": 7345,
      "CF": 7346,
      "Grow": 7347,
      "Genes": 7348,
      "Krebs": 7349,
      "Let": 7350,
      "Multi": 7351,
      "Path": 7352,
      "Wet": 7353,
      "aromatic": 7354,
      "ba": 7355,
      "cure": 7356,
      "cast": 7357,
      "dot": 7358,
      "drag": 7359,
      "faces": 7360,
      "gor": 7361,
      "gut": 7362,
      "girdle": 7363,
      "ire": 7364,
      "ler": 7365,
      "lactin": 7366,
      "mits": 7367,
      "mud": 7368,
      "nickel": 7369,
      "oplasts": 7370,
      "pale": 7371,
      "slime": 7372,
      "vad": 7373,
      "vative": 7374,
      "yn": 7375,
      "”.": 7376,
      "thum": 7377,
      "inversely": 7378,
      "reli": 7379,
      "remember": 7380,
      "aldosterone": 7381,
      "ised": 7382,
      "lever": 7383,
      "heme": 7384,
      "ecili": 7385,
      "chondro": 7386,
      "dilation": 7387,
      "dialysis": 7388,
      "proportions": 7389,
      "lipo": 7390,
      "trate": 7391,
      "amy": 7392,
      "ament": 7393,
      "amous": 7394,
      "ulty": 7395,
      "beverages": 7396,
      "odon": 7397,
      "plenty": 7398,
      "dehy": 7399,
      "logy": 7400,
      "locomotion": 7401,
      "gens": 7402,
      "pore": 7403,
      "adminis": 7404,
      "ocortic": 7405,
      "carpal": 7406,
      "Though": 7407,
      "lowing": 7408,
      "solve": 7409,
      "assign": 7410,
      "web": 7411,
      "chances": 7412,
      "opaque": 7413,
      "endome": 7414,
      "believe": 7415,
      "believed": 7416,
      "estone": 7417,
      "cyst": 7418,
      "tured": 7419,
      "enses": 7420,
      "interfe": 7421,
      "interval": 7422,
      "relate": 7423,
      "terminal": 7424,
      "phoid": 7425,
      "nosis": 7426,
      "thereby": 7427,
      "Earthquakes": 7428,
      "placing": 7429,
      "actively": 7430,
      "electrode": 7431,
      "helping": 7432,
      "Altern": 7433,
      "microbial": 7434,
      "filtered": 7435,
      "sections": 7436,
      "evenly": 7437,
      "sheets": 7438,
      "blasto": 7439,
      "ultural": 7440,
      "catabolic": 7441,
      "litmus": 7442,
      "hots": 7443,
      "everyday": 7444,
      "glycan": 7445,
      "ovule": 7446,
      "tendons": 7447,
      "fying": 7448,
      "Cl2": 7449,
      "ramp": 7450,
      "experimental": 7451,
      "bulbs": 7452,
      "catalyzes": 7453,
      "driving": 7454,
      "childhood": 7455,
      "Adult": 7456,
      "puts": 7457,
      "Solids": 7458,
      "reptile": 7459,
      "segreg": 7460,
      "Bio": 7461,
      "efficients": 7462,
      "flatten": 7463,
      "flexibility": 7464,
      "watching": 7465,
      "tubule": 7466,
      "diagrams": 7467,
      "tunicates": 7468,
      "Metabolism": 7469,
      "ethmoid": 7470,
      "codons": 7471,
      "originally": 7472,
      "deposit": 7473,
      "philes": 7474,
      "condensed": 7475,
      "bursts": 7476,
      "suppres": 7477,
      "initiate": 7478,
      "width": 7479,
      "ridges": 7480,
      "duplicated": 7481,
      "Moreover": 7482,
      "specified": 7483,
      "Leaves": 7484,
      "captured": 7485,
      "deliver": 7486,
      "Respiration": 7487,
      "digits": 7488,
      "mutualistic": 7489,
      "manufacture": 7490,
      "Chromosomes": 7491,
      "summarized": 7492,
      "mushrooms": 7493,
      "Universe": 7494,
      "cylinder": 7495,
      "sarcome": 7496,
      "coccy": 7497,
      "framework": 7498,
      "possibly": 7499,
      "Arteries": 7500,
      "Female": 7501,
      "Materials": 7502,
      "adolescence": 7503,
      "carotid": 7504,
      "cornea": 7505,
      "Sulfur": 7506,
      "mitotic": 7507,
      "occipital": 7508,
      "equipment": 7509,
      "dehyde": 7510,
      "75": 7511,
      "Along": 7512,
      "Bu": 7513,
      "Down": 7514,
      "Flat": 7515,
      "Hot": 7516,
      "Lear": 7517,
      "MR": 7518,
      "Mal": 7519,
      "Ox": 7520,
      "Oste": 7521,
      "Sensory": 7522,
      "aphotic": 7523,
      "bare": 7524,
      "bability": 7525,
      "bomb": 7526,
      "dun": 7527,
      "gic": 7528,
      "gather": 7529,
      "hil": 7530,
      "mind": 7531,
      "mist": 7532,
      "nine": 7533,
      "ogy": 7534,
      "ovarian": 7535,
      "pto": 7536,
      "ritis": 7537,
      "sque": 7538,
      "throm": 7539,
      "thunder": 7540,
      "thread": 7541,
      "indirectly": 7542,
      "alog": 7543,
      "oris": 7544,
      "tood": 7545,
      "stres": 7546,
      "olf": 7547,
      "ecology": 7548,
      "ecological": 7549,
      "chr": 7550,
      "chor": 7551,
      "chae": 7552,
      "tering": 7553,
      "unch": 7554,
      "empl": 7555,
      "geological": 7556,
      "cancel": 7557,
      "meets": 7558,
      "quart": 7559,
      "otherwise": 7560,
      "octet": 7561,
      "productive": 7562,
      "incid": 7563,
      "disaccharides": 7564,
      "discrete": 7565,
      "Internal": 7566,
      "stral": 7567,
      "strain": 7568,
      "hyoid": 7569,
      "anywhere": 7570,
      "hemisp": 7571,
      "obviously": 7572,
      "ortun": 7573,
      "board": 7574,
      "colder": 7575,
      "someone": 7576,
      "subdivided": 7577,
      "gial": 7578,
      "interphase": 7579,
      "atile": 7580,
      "included": 7581,
      "musical": 7582,
      "virt": 7583,
      "relay": 7584,
      "clon": 7585,
      "regard": 7586,
      "preci": 7587,
      "viscer": 7588,
      "tuber": 7589,
      "nonrenewable": 7590,
      "salmon": 7591,
      "ologies": 7592,
      "welling": 7593,
      "combining": 7594,
      "locate": 7595,
      "separating": 7596,
      "Exper": 7597,
      "trypsin": 7598,
      "istics": 7599,
      "crack": 7600,
      "craters": 7601,
      "cytosine": 7602,
      "naming": 7603,
      "ropod": 7604,
      "everywhere": 7605,
      "opposes": 7606,
      "surviving": 7607,
      "swallowing": 7608,
      "Together": 7609,
      "accelerate": 7610,
      "Whereas": 7611,
      "CO3": 7612,
      "balls": 7613,
      "blocked": 7614,
      "crossing": 7615,
      "mention": 7616,
      "irrigation": 7617,
      "alternation": 7618,
      "suscep": 7619,
      "initially": 7620,
      "Poly": 7621,
      "barriers": 7622,
      "heterotrophic": 7623,
      "Northern": 7624,
      "society": 7625,
      "introduction": 7626,
      "distinguished": 7627,
      "stroma": 7628,
      "stroke": 7629,
      "ectoderm": 7630,
      "accumulation": 7631,
      "yields": 7632,
      "constructive": 7633,
      "statements": 7634,
      "nephron": 7635,
      "Auto": 7636,
      "genotypes": 7637,
      "comparison": 7638,
      "dissociates": 7639,
      "resemble": 7640,
      "ankle": 7641,
      "errors": 7642,
      "precision": 7643,
      "arrive": 7644,
      "ingested": 7645,
      "geometry": 7646,
      "Super": 7647,
      "ganglion": 7648,
      "Potential": 7649,
      "sickle": 7650,
      "profess": 7651,
      "Cephal": 7652,
      "Periodic": 7653,
      "understood": 7654,
      "stationary": 7655,
      "false": 7656,
      "moregulation": 7657,
      "cyanobacteria": 7658,
      "challen": 7659,
      "Single": 7660,
      "splits": 7661,
      "Acceleration": 7662,
      "tobacco": 7663,
      "ecilians": 7664,
      "squee": 7665,
      "hemispheres": 7666,
      "65": 7667,
      "BCs": 7668,
      "CT": 7669,
      "Cir": 7670,
      "Chor": 7671,
      "Due": 7672,
      "Density": 7673,
      "Find": 7674,
      "Ma": 7675,
      "NC": 7676,
      "O3": 7677,
      "SA": 7678,
      "Sto": 7679,
      "Som": 7680,
      "Sign": 7681,
      "Stre": 7682,
      "Sug": 7683,
      "Spon": 7684,
      "US": 7685,
      "Watch": 7686,
      "ape": 7687,
      "aud": 7688,
      "bends": 7689,
      "crop": 7690,
      "dol": 7691,
      "fused": 7692,
      "fusing": 7693,
      "hit": 7694,
      "hence": 7695,
      "hunt": 7696,
      "jects": 7697,
      "node": 7698,
      "oon": 7699,
      "pubic": 7700,
      "sel": 7701,
      "ssi": 7702,
      "tz": 7703,
      "tex": 7704,
      "zon": 7705,
      "inste": 7706,
      "insoluble": 7707,
      "inversion": 7708,
      "theless": 7709,
      "revolution": 7710,
      "anabolic": 7711,
      "atos": 7712,
      "attri": 7713,
      "onium": 7714,
      "esters": 7715,
      "leum": 7716,
      "rolling": 7717,
      "asym": 7718,
      "androgen": 7719,
      "accept": 7720,
      "sty": 7721,
      "stabi": 7722,
      "olus": 7723,
      "suf": 7724,
      "ecraft": 7725,
      "whales": 7726,
      "ching": 7727,
      "dio": 7728,
      "dily": 7729,
      "lips": 7730,
      "lified": 7731,
      "ambrian": 7732,
      "spine": 7733,
      "beau": 7734,
      "uncontrolled": 7735,
      "deoxy": 7736,
      "geothermal": 7737,
      "peric": 7738,
      "perce": 7739,
      "quad": 7740,
      "tea": 7741,
      "watery": 7742,
      "apical": 7743,
      "apple": 7744,
      "ribonucleic": 7745,
      "doors": 7746,
      "rench": 7747,
      "ideas": 7748,
      "solvents": 7749,
      "diffraction": 7750,
      "specim": 7751,
      "endings": 7752,
      "boys": 7753,
      "ensal": 7754,
      "earch": 7755,
      "beryl": 7756,
      "Antar": 7757,
      "clin": 7758,
      "implies": 7759,
      "troleum": 7760,
      "tradition": 7761,
      "transformed": 7762,
      "osine": 7763,
      "serv": 7764,
      "arthritis": 7765,
      "horse": 7766,
      "downhill": 7767,
      "stoichi": 7768,
      "rounded": 7769,
      "medus": 7770,
      "zygo": 7771,
      "tracts": 7772,
      "showed": 7773,
      "transpl": 7774,
      "electrolysis": 7775,
      "steroids": 7776,
      "lowering": 7777,
      "polarized": 7778,
      "reading": 7779,
      "suggest": 7780,
      "Proper": 7781,
      "speech": 7782,
      "picks": 7783,
      "explore": 7784,
      "explosion": 7785,
      "plications": 7786,
      "Motion": 7787,
      "polygenic": 7788,
      "carriers": 7789,
      "sensation": 7790,
      "Sunlight": 7791,
      "floats": 7792,
      "maintained": 7793,
      "pyr": 7794,
      "180": 7795,
      "representing": 7796,
      "ancing": 7797,
      "lacking": 7798,
      "catalyzed": 7799,
      "indicator": 7800,
      "adipose": 7801,
      "sacral": 7802,
      "Reproduction": 7803,
      "warms": 7804,
      "happened": 7805,
      "sweating": 7806,
      "superficial": 7807,
      "Despite": 7808,
      "energe": 7809,
      "ratios": 7810,
      "vibration": 7811,
      "vibrate": 7812,
      "answers": 7813,
      "dispersed": 7814,
      "vestigial": 7815,
      "cutting": 7816,
      "III": 7817,
      "compete": 7818,
      "Europe": 7819,
      "impulse": 7820,
      "synaptic": 7821,
      "glycosid": 7822,
      "periphery": 7823,
      "figures": 7824,
      "palm": 7825,
      "spinning": 7826,
      "expanding": 7827,
      "carboxyl": 7828,
      "atrio": 7829,
      "kingdoms": 7830,
      "Radiation": 7831,
      "cranium": 7832,
      "accuracy": 7833,
      "selective": 7834,
      "selected": 7835,
      "altitudes": 7836,
      "drawn": 7837,
      "accessory": 7838,
      "approaches": 7839,
      "repeatedly": 7840,
      "preserved": 7841,
      "agricultural": 7842,
      "resembles": 7843,
      "oscillating": 7844,
      "bundles": 7845,
      "proceeds": 7846,
      "Radioactive": 7847,
      "Amines": 7848,
      "inhalation": 7849,
      "trillions": 7850,
      "favorable": 7851,
      "annelids": 7852,
      "Primary": 7853,
      "Neutr": 7854,
      "voltaic": 7855,
      "effectively": 7856,
      "reported": 7857,
      "obesity": 7858,
      "inflammation": 7859,
      "Transport": 7860,
      "ventilation": 7861,
      "accommodate": 7862,
      "refrigerator": 7863,
      "Mechanical": 7864,
      "Increasing": 7865,
      "loosely": 7866,
      "Growth": 7867,
      "employ": 7868,
      "instein": 7869,
      "Antarctica": 7870,
      "glycosidic": 7871,
      "Bel": 7872,
      "Binary": 7873,
      "Eg": 7874,
      "Free": 7875,
      "Game": 7876,
      "Her": 7877,
      "HIV": 7878,
      "Iron": 7879,
      "Lat": 7880,
      "Linnae": 7881,
      "Mn": 7882,
      "Mes": 7883,
      "PH": 7884,
      "RY": 7885,
      "SU": 7886,
      "Suc": 7887,
      "Section": 7888,
      "Tel": 7889,
      "arose": 7890,
      "bath": 7891,
      "cement": 7892,
      "cnidarians": 7893,
      "drought": 7894,
      "ejac": 7895,
      "fts": 7896,
      "furn": 7897,
      "fash": 7898,
      "gated": 7899,
      "gover": 7900,
      "gni": 7901,
      "hamm": 7902,
      "lide": 7903,
      "lamin": 7904,
      "ny": 7905,
      "nos": 7906,
      "nip": 7907,
      "nuts": 7908,
      "pap": 7909,
      "ptions": 7910,
      "pione": 7911,
      "pneumonia": 7912,
      "ride": 7913,
      "sic": 7914,
      "sso": 7915,
      "sending": 7916,
      "snails": 7917,
      "utiliz": 7918,
      "ycle": 7919,
      "invad": 7920,
      "recovered": 7921,
      "atar": 7922,
      "lear": 7923,
      "tiful": 7924,
      "took": 7925,
      "edu": 7926,
      "elic": 7927,
      "ominant": 7928,
      "secon": 7929,
      "sebaceous": 7930,
      "mobile": 7931,
      "ower": 7932,
      "dial": 7933,
      "ford": 7934,
      "fortun": 7935,
      "tertiary": 7936,
      "spines": 7937,
      "emits": 7938,
      "geology": 7939,
      "poc": 7940,
      "pographic": 7941,
      "igration": 7942,
      "tele": 7943,
      "feels": 7944,
      "sively": 7945,
      "inclined": 7946,
      "ries": 7947,
      "displays": 7948,
      "route": 7949,
      "achieved": 7950,
      "opposed": 7951,
      "monal": 7952,
      "bodily": 7953,
      "intensive": 7954,
      "biologists": 7955,
      "centers": 7956,
      "chart": 7957,
      "template": 7958,
      "Angi": 7959,
      "epic": 7960,
      "osal": 7961,
      "correspond": 7962,
      "prefer": 7963,
      "resulted": 7964,
      "decays": 7965,
      "decline": 7966,
      "extending": 7967,
      "karya": 7968,
      "defect": 7969,
      "defective": 7970,
      "stere": 7971,
      "physic": 7972,
      "herpes": 7973,
      "filament": 7974,
      "ordinary": 7975,
      "ivered": 7976,
      "conducting": 7977,
      "liters": 7978,
      "complexity": 7979,
      "missing": 7980,
      "Contin": 7981,
      "shortening": 7982,
      "Cartil": 7983,
      "applies": 7984,
      "Unsaturated": 7985,
      "Unfortun": 7986,
      "mycorrhiz": 7987,
      "icians": 7988,
      "representation": 7989,
      "steady": 7990,
      "resistor": 7991,
      "scope": 7992,
      "rotating": 7993,
      "continued": 7994,
      "bottle": 7995,
      "Systems": 7996,
      "dropped": 7997,
      "builds": 7998,
      "Reactions": 7999,
      "collected": 8000,
      "excrete": 8001,
      "gained": 8002,
      "task": 8003,
      "Research": 8004,
      "absorptive": 8005,
      "delivered": 8006,
      "alcoholic": 8007,
      "carbides": 8008,
      "fruiting": 8009,
      "extinctions": 8010,
      "Electrical": 8011,
      "osteoblasts": 8012,
      "atherosclerosis": 8013,
      "promotes": 8014,
      "differentiation": 8015,
      "differentiated": 8016,
      "annual": 8017,
      "reversed": 8018,
      "occupies": 8019,
      "Coriolis": 8020,
      "prior": 8021,
      "eliminated": 8022,
      "investigations": 8023,
      "suggested": 8024,
      "sulfate": 8025,
      "Austral": 8026,
      "morphology": 8027,
      "vaccines": 8028,
      "error": 8029,
      "projectile": 8030,
      "accompl": 8031,
      "spacecraft": 8032,
      "hinge": 8033,
      "Current": 8034,
      "gastrointestinal": 8035,
      "resonance": 8036,
      "farming": 8037,
      "margin": 8038,
      "southern": 8039,
      "instantaneous": 8040,
      "items": 8041,
      "beetles": 8042,
      "houses": 8043,
      "Plasma": 8044,
      "reveal": 8045,
      "accompan": 8046,
      "Domain": 8047,
      "ostomes": 8048,
      "Aquatic": 8049,
      "harmonic": 8050,
      "Development": 8051,
      "flattened": 8052,
      "quartz": 8053,
      "virtual": 8054,
      "visceral": 8055,
      "seconds": 8056,
      "Unfortunately": 8057,
      "52": 8058,
      "600": 8059,
      "Average": 8060,
      "CA": 8061,
      "Cr": 8062,
      "Cel": 8063,
      "Ecol": 8064,
      "Four": 8065,
      "Fric": 8066,
      "Fortun": 8067,
      "ID": 8068,
      "Ion": 8069,
      "Ke": 8070,
      "Kidne": 8071,
      "Mount": 8072,
      "Moment": 8073,
      "MMA": 8074,
      "Near": 8075,
      "Op": 8076,
      "Pale": 8077,
      "Power": 8078,
      "Rather": 8079,
      "Saturated": 8080,
      "Upon": 8081,
      "bent": 8082,
      "brom": 8083,
      "count": 8084,
      "cush": 8085,
      "fis": 8086,
      "finn": 8087,
      "got": 8088,
      "ham": 8089,
      "honey": 8090,
      "iation": 8091,
      "ians": 8092,
      "kJ": 8093,
      "mg": 8094,
      "mation": 8095,
      "mell": 8096,
      "mons": 8097,
      "ners": 8098,
      "pond": 8099,
      "vore": 8100,
      "wine": 8101,
      "incomplete": 8102,
      "anze": 8103,
      "alimentary": 8104,
      "islands": 8105,
      "orized": 8106,
      "ofibr": 8107,
      "toes": 8108,
      "hepat": 8109,
      "icts": 8110,
      "icots": 8111,
      "sten": 8112,
      "sting": 8113,
      "stands": 8114,
      "ouds": 8115,
      "sebum": 8116,
      "ows": 8117,
      "diatomic": 8118,
      "dilate": 8119,
      "protic": 8120,
      "tris": 8121,
      "train": 8122,
      "conifers": 8123,
      "constell": 8124,
      "spr": 8125,
      "spins": 8126,
      "bee": 8127,
      "emul": 8128,
      "urations": 8129,
      "plural": 8130,
      "White": 8131,
      "deed": 8132,
      "deals": 8133,
      "ticides": 8134,
      "abr": 8135,
      "atern": 8136,
      "peroxide": 8137,
      "philia": 8138,
      "former": 8139,
      "Think": 8140,
      "sia": 8141,
      "inephrine": 8142,
      "cogen": 8143,
      "volts": 8144,
      "voluntary": 8145,
      "acet": 8146,
      "monoc": 8147,
      "monomer": 8148,
      "computer": 8149,
      "fif": 8150,
      "hydration": 8151,
      "sublevel": 8152,
      "subject": 8153,
      "biosphere": 8154,
      "centro": 8155,
      "centrome": 8156,
      "index": 8157,
      "fertile": 8158,
      "asting": 8159,
      "epinephrine": 8160,
      "veness": 8161,
      "impanze": 8162,
      "tropics": 8163,
      "transformation": 8164,
      "transmits": 8165,
      "breed": 8166,
      "decid": 8167,
      "decimal": 8168,
      "nova": 8169,
      "noticed": 8170,
      "lique": 8171,
      "helic": 8172,
      "needle": 8173,
      "rocky": 8174,
      "engines": 8175,
      "engulf": 8176,
      "responds": 8177,
      "closing": 8178,
      "shaft": 8179,
      "caps": 8180,
      "backward": 8181,
      "joins": 8182,
      "turning": 8183,
      "lizards": 8184,
      "secretory": 8185,
      "iliac": 8186,
      "Exer": 8187,
      "polarity": 8188,
      "sumers": 8189,
      "crine": 8190,
      "dependence": 8191,
      "Process": 8192,
      "sheep": 8193,
      "negli": 8194,
      "sequencing": 8195,
      "united": 8196,
      "Weight": 8197,
      "fertilizers": 8198,
      "damaging": 8199,
      "mold": 8200,
      "stimulated": 8201,
      "Compe": 8202,
      "Contro": 8203,
      "Consequently": 8204,
      "Consumers": 8205,
      "patella": 8206,
      "shortly": 8207,
      "attaches": 8208,
      "anchored": 8209,
      "polluted": 8210,
      "laterally": 8211,
      "accelerators": 8212,
      "Active": 8213,
      "jointed": 8214,
      "odeficiency": 8215,
      "supporting": 8216,
      "ensities": 8217,
      "circum": 8218,
      "necessarily": 8219,
      "reflecting": 8220,
      "indicating": 8221,
      "diagnosis": 8222,
      "Heter": 8223,
      "Arth": 8224,
      "quantit": 8225,
      "mucosa": 8226,
      "facing": 8227,
      "drying": 8228,
      "ribose": 8229,
      "availability": 8230,
      "buildup": 8231,
      "buildings": 8232,
      "confir": 8233,
      "predictable": 8234,
      "decompose": 8235,
      "tunica": 8236,
      "squamous": 8237,
      "graphite": 8238,
      "CoA": 8239,
      "viewed": 8240,
      "killed": 8241,
      "Recep": 8242,
      "mitochondr": 8243,
      "telome": 8244,
      "orphism": 8245,
      "chymal": 8246,
      "cyclones": 8247,
      "families": 8248,
      "CH3": 8249,
      "Phylum": 8250,
      "hypertension": 8251,
      "sitting": 8252,
      "divergent": 8253,
      "isolation": 8254,
      "macroscopic": 8255,
      "initiation": 8256,
      "guanine": 8257,
      "medications": 8258,
      "correctly": 8259,
      "pregnant": 8260,
      "strategies": 8261,
      "chemosynthesis": 8262,
      "Geiger": 8263,
      "temporary": 8264,
      "elimination": 8265,
      "metamorphism": 8266,
      "sulfide": 8267,
      "Structure": 8268,
      "sleeping": 8269,
      "localized": 8270,
      "mutualism": 8271,
      "couple": 8272,
      "adequ": 8273,
      "butterfly": 8274,
      "swelling": 8275,
      "encounter": 8276,
      "Posi": 8277,
      "ectothermic": 8278,
      "ganglionic": 8279,
      "girls": 8280,
      "ingredient": 8281,
      "troughs": 8282,
      "vaginal": 8283,
      "abilities": 8284,
      "Smooth": 8285,
      "buoyant": 8286,
      "tornadoes": 8287,
      "Depending": 8288,
      "Following": 8289,
      "Diseases": 8290,
      "Typically": 8291,
      "lamydia": 8292,
      "mandible": 8293,
      "Wetlands": 8294,
      "endometrium": 8295,
      "Flatworms": 8296,
      "mentioned": 8297,
      "auditory": 8298,
      "atrioventricular": 8299,
      "SUMMA": 8300,
      "fashion": 8301,
      "accompanied": 8302,
      "Celsius": 8303,
      "Friction": 8304,
      "Fortunately": 8305,
      "finned": 8306,
      "mellitus": 8307,
      "SUMMARY": 8308,
      "\")": 8309,
      "120": 8310,
      "3s": 8311,
      "Abs": 8312,
      "Bas": 8313,
      "Bron": 8314,
      "Cre": 8315,
      "Cnidarians": 8316,
      "C2H": 8317,
      "EP": 8318,
      "Epi": 8319,
      "Einstein": 8320,
      "Gn": 8321,
      "Glac": 8322,
      "Hom": 8323,
      "Mem": 8324,
      "Making": 8325,
      "Oil": 8326,
      "Pul": 8327,
      "Run": 8328,
      "Rain": 8329,
      "Rot": 8330,
      "Seg": 8331,
      "ban": 8332,
      "cies": 8333,
      "cous": 8334,
      "fla": 8335,
      "gard": 8336,
      "kcal": 8337,
      "lantic": 8338,
      "lancelets": 8339,
      "nem": 8340,
      "pill": 8341,
      "penc": 8342,
      "sig": 8343,
      "sors": 8344,
      "scri": 8345,
      "tam": 8346,
      "tad": 8347,
      "tap": 8348,
      "tant": 8349,
      "wides": 8350,
      "warn": 8351,
      "”:": 8352,
      "⎯⎯": 8353,
      "thre": 8354,
      "throw": 8355,
      "repl": 8356,
      "recombination": 8357,
      "remark": 8358,
      "anther": 8359,
      "aty": 8360,
      "atro": 8361,
      "endi": 8362,
      "ensures": 8363,
      "aldehyde": 8364,
      "leak": 8365,
      "roll": 8366,
      "tide": 8367,
      "educ": 8368,
      "stal": 8369,
      "sted": 8370,
      "stated": 8371,
      "itone": 8372,
      "suited": 8373,
      "owl": 8374,
      "chimpanze": 8375,
      "dian": 8376,
      "diar": 8377,
      "prom": 8378,
      "probability": 8379,
      "trace": 8380,
      "ami": 8381,
      "amps": 8382,
      "ulations": 8383,
      "ucent": 8384,
      "spong": 8385,
      "beating": 8386,
      "unusual": 8387,
      "ura": 8388,
      "Who": 8389,
      "exocrine": 8390,
      "exhibits": 8391,
      "loose": 8392,
      "metric": 8393,
      "keys": 8394,
      "ocks": 8395,
      "pariet": 8396,
      "apparent": 8397,
      "rive": 8398,
      "dish": 8399,
      "discharge": 8400,
      "doglycan": 8401,
      "renatal": 8402,
      "cosm": 8403,
      "coating": 8404,
      "coefficient": 8405,
      "note": 8406,
      "assess": 8407,
      "mong": 8408,
      "monoxide": 8409,
      "sole": 8410,
      "surg": 8411,
      "examine": 8412,
      "subphylum": 8413,
      "gible": 8414,
      "agree": 8415,
      "ffy": 8416,
      "hydroly": 8417,
      "clav": 8418,
      "deri": 8419,
      "oster": 8420,
      "pread": 8421,
      "cription": 8422,
      "nore": 8423,
      "traces": 8424,
      "letters": 8425,
      "background": 8426,
      "description": 8427,
      "folded": 8428,
      "electrodes": 8429,
      "basin": 8430,
      "helped": 8431,
      "secreting": 8432,
      "porous": 8433,
      "filtrate": 8434,
      "Excre": 8435,
      "symphysis": 8436,
      "cracks": 8437,
      "bling": 8438,
      "beds": 8439,
      "arness": 8440,
      "vaporization": 8441,
      "cytoplasmic": 8442,
      "powers": 8443,
      "pedes": 8444,
      "thymine": 8445,
      "polyp": 8446,
      "mollus": 8447,
      "turtles": 8448,
      "hotter": 8449,
      "testis": 8450,
      "algal": 8451,
      "ontally": 8452,
      "tendon": 8453,
      "accelerating": 8454,
      "Clouds": 8455,
      "looked": 8456,
      "accid": 8457,
      "linkage": 8458,
      "borne": 8459,
      "deepest": 8460,
      "parasitism": 8461,
      "famous": 8462,
      "illustrate": 8463,
      "integum": 8464,
      "peptidoglycan": 8465,
      "endothelial": 8466,
      "repeat": 8467,
      "macrophages": 8468,
      "approximate": 8469,
      "wrist": 8470,
      "erupt": 8471,
      "ogonia": 8472,
      "contracting": 8473,
      "Coal": 8474,
      "vibrates": 8475,
      "Between": 8476,
      "Behavi": 8477,
      "choan": 8478,
      "painful": 8479,
      "disperse": 8480,
      "abundance": 8481,
      "buried": 8482,
      "softer": 8483,
      "logical": 8484,
      "Type": 8485,
      "chordata": 8486,
      "Diam": 8487,
      "compression": 8488,
      "stratum": 8489,
      "NO2": 8490,
      "emerge": 8491,
      "horizontally": 8492,
      "vegetables": 8493,
      "randomly": 8494,
      "connecting": 8495,
      "category": 8496,
      "construction": 8497,
      "pinephrine": 8498,
      "literally": 8499,
      "Objects": 8500,
      "threatening": 8501,
      "contaminated": 8502,
      "Substances": 8503,
      "adjustments": 8504,
      "illnesses": 8505,
      "Digestive": 8506,
      "public": 8507,
      "published": 8508,
      "elongated": 8509,
      "cylind": 8510,
      "trillion": 8511,
      "wrapped": 8512,
      "tools": 8513,
      "hurricane": 8514,
      "hurricanes": 8515,
      "semiconduc": 8516,
      "lysosomes": 8517,
      "collapse": 8518,
      "Melting": 8519,
      "Sedimentary": 8520,
      "supersaturated": 8521,
      "utrophils": 8522,
      "Vitamins": 8523,
      "pseudo": 8524,
      "physema": 8525,
      "Africa": 8526,
      "carnivorous": 8527,
      "substit": 8528,
      "Uranus": 8529,
      "exceeds": 8530,
      "diuretic": 8531,
      "doubt": 8532,
      "Discuss": 8533,
      "thumb": 8534,
      "chronic": 8535,
      "Sponges": 8536,
      "suffix": 8537,
      "beautiful": 8538,
      "quadr": 8539,
      "Below": 8540,
      "Angiosperms": 8541,
      "Momentum": 8542,
      "negligible": 8543,
      "mitochondrion": 8544,
      "widespread": 8545,
      "replen": 8546,
      "endix": 8547,
      "parietal": 8548,
      "+)": 8549,
      "+,": 8550,
      "64": 8551,
      "78": 8552,
      "AD": 8553,
      "AM": 8554,
      "Ato": 8555,
      "Big": 8556,
      "Cle": 8557,
      "Coul": 8558,
      "Ess": 8559,
      "Eris": 8560,
      "Fission": 8561,
      "French": 8562,
      "GF": 8563,
      "Glo": 8564,
      "Gamma": 8565,
      "Kel": 8566,
      "Mil": 8567,
      "Pri": 8568,
      "She": 8569,
      "Spe": 8570,
      "South": 8571,
      "Skin": 8572,
      "Tra": 8573,
      "Treat": 8574,
      "Use": 8575,
      "Urine": 8576,
      "Zn": 8577,
      "cum": 8578,
      "cater": 8579,
      "cris": 8580,
      "ether": 8581,
      "fab": 8582,
      "father": 8583,
      "greg": 8584,
      "harness": 8585,
      "io": 8586,
      "ipul": 8587,
      "lich": 8588,
      "national": 8589,
      "pell": 8590,
      "scan": 8591,
      "tank": 8592,
      "vig": 8593,
      "wil": 8594,
      "wann": 8595,
      "za": 8596,
      "inos": 8597,
      "insight": 8598,
      "regenerate": 8599,
      "reference": 8600,
      "erus": 8601,
      "alton": 8602,
      "isomer": 8603,
      "aric": 8604,
      "arid": 8605,
      "arach": 8606,
      "argon": 8607,
      "titive": 8608,
      "tow": 8609,
      "asal": 8610,
      "ede": 8611,
      "icks": 8612,
      "actic": 8613,
      "stack": 8614,
      "inges": 8615,
      "eli": 8616,
      "itation": 8617,
      "ola": 8618,
      "suitable": 8619,
      "moe": 8620,
      "ecum": 8621,
      "ligence": 8622,
      "trash": 8623,
      "ulated": 8624,
      "ircular": 8625,
      "ung": 8626,
      "urity": 8627,
      "pler": 8628,
      "exha": 8629,
      "imid": 8630,
      "immediate": 8631,
      "composite": 8632,
      "byproduct": 8633,
      "peritone": 8634,
      "adds": 8635,
      "pere": 8636,
      "petroleum": 8637,
      "disci": 8638,
      "coefficients": 8639,
      "solved": 8640,
      "shut": 8641,
      "actors": 8642,
      "illa": 8643,
      "cakes": 8644,
      "monitor": 8645,
      "roughly": 8646,
      "soph": 8647,
      "boil": 8648,
      "comprises": 8649,
      "subscri": 8650,
      "viable": 8651,
      "biom": 8652,
      "biofu": 8653,
      "inding": 8654,
      "bleeding": 8655,
      "intertidal": 8656,
      "nucleolus": 8657,
      "glish": 8658,
      "bern": 8659,
      "eleph": 8660,
      "maltose": 8661,
      "hydrothermal": 8662,
      "relatives": 8663,
      "impair": 8664,
      "troph": 8665,
      "valleys": 8666,
      "serving": 8667,
      "ostatic": 8668,
      "partly": 8669,
      "objective": 8670,
      "foundation": 8671,
      "stove": 8672,
      "perioste": 8673,
      "planted": 8674,
      "vised": 8675,
      "viscous": 8676,
      "lade": 8677,
      "launch": 8678,
      "limestone": 8679,
      "buffers": 8680,
      "ilepsy": 8681,
      "atics": 8682,
      "electromagnet": 8683,
      "mutated": 8684,
      "marsh": 8685,
      "ava": 8686,
      "restor": 8687,
      "trying": 8688,
      "landforms": 8689,
      "femoris": 8690,
      "blic": 8691,
      "flame": 8692,
      "converting": 8693,
      "expon": 8694,
      "catalog": 8695,
      "orderly": 8696,
      "alkane": 8697,
      "alkyl": 8698,
      "gestation": 8699,
      "besides": 8700,
      "knowing": 8701,
      "deduc": 8702,
      "Concentr": 8703,
      "Convection": 8704,
      "archae": 8705,
      "vade": 8706,
      "myopia": 8707,
      "smog": 8708,
      "rainforests": 8709,
      "bark": 8710,
      "Acti": 8711,
      "mediation": 8712,
      "settle": 8713,
      "luminescence": 8714,
      "accounts": 8715,
      "linkages": 8716,
      "insulator": 8717,
      "remainder": 8718,
      "moderate": 8719,
      "diagnos": 8720,
      "devast": 8721,
      "advances": 8722,
      "advanced": 8723,
      "homo": 8724,
      "posteriorly": 8725,
      "lastic": 8726,
      "harsh": 8727,
      "labels": 8728,
      "Biological": 8729,
      "Biomass": 8730,
      "interacting": 8731,
      "tubular": 8732,
      "ogurt": 8733,
      "frog": 8734,
      "traps": 8735,
      "Electron": 8736,
      "paint": 8737,
      "blowing": 8738,
      "bridge": 8739,
      "operon": 8740,
      "dimensions": 8741,
      "Eukarya": 8742,
      "carefully": 8743,
      "bronze": 8744,
      "Nucleic": 8745,
      "cube": 8746,
      "abnormalities": 8747,
      "ligand": 8748,
      "ligands": 8749,
      "Calcul": 8750,
      "poisonous": 8751,
      "accurately": 8752,
      "Volume": 8753,
      "fragmentation": 8754,
      "configurations": 8755,
      "sensitivity": 8756,
      "monosaccharide": 8757,
      "Conser": 8758,
      "integral": 8759,
      "geograph": 8760,
      "electrolytes": 8761,
      "distinguishing": 8762,
      "Fluor": 8763,
      "Space": 8764,
      "Ammon": 8765,
      "exoskeletons": 8766,
      "dissociate": 8767,
      "vaccine": 8768,
      "STI": 8769,
      "screw": 8770,
      "Symptoms": 8771,
      "NH3": 8772,
      "phylogeny": 8773,
      "Endocrine": 8774,
      "demonstrated": 8775,
      "descend": 8776,
      "Glycogen": 8777,
      "summarizes": 8778,
      "trend": 8779,
      "restricted": 8780,
      "Liquid": 8781,
      "compacted": 8782,
      "assembly": 8783,
      "plexus": 8784,
      "constituent": 8785,
      "Chloroplasts": 8786,
      "popular": 8787,
      "petals": 8788,
      "shrimp": 8789,
      "orientation": 8790,
      "concerned": 8791,
      "heterozygous": 8792,
      "cliff": 8793,
      "ingredients": 8794,
      "semicircular": 8795,
      "exhalation": 8796,
      "millimeters": 8797,
      "Galile": 8798,
      "Joh": 8799,
      "assumed": 8800,
      "bryophytes": 8801,
      "seminiferous": 8802,
      "Public": 8803,
      "Roots": 8804,
      "expelled": 8805,
      "scaven": 8806,
      "antenna": 8807,
      "intelligence": 8808,
      "pupil": 8809,
      "theoretical": 8810,
      "dendrites": 8811,
      "numerical": 8812,
      "joules": 8813,
      "glomerulus": 8814,
      "pyramid": 8815,
      "Centri": 8816,
      "World": 8817,
      "susceptible": 8818,
      "profession": 8819,
      "Major": 8820,
      "zona": 8821,
      "beryllium": 8822,
      "pyrimid": 8823,
      "abrasion": 8824,
      "centromere": 8825,
      "Competition": 8826,
      "Glaciers": 8827,
      "Atomic": 8828,
      "Coulomb": 8829,
      "caterpill": 8830,
      "fabric": 8831,
      "exhaust": 8832,
      "discipl": 8833,
      "\"?": 8834,
      "01": 8835,
      "2000": 8836,
      "6H": 8837,
      "85": 8838,
      "92": 8839,
      "Ace": 8840,
      "Boy": 8841,
      "Dr": 8842,
      "Fat": 8843,
      "Fresh": 8844,
      "Ger": 8845,
      "Iso": 8846,
      "King": 8847,
      "Land": 8848,
      "Mex": 8849,
      "Ni": 8850,
      "Nep": 8851,
      "Nutrients": 8852,
      "PNS": 8853,
      "Still": 8854,
      "TV": 8855,
      "Tes": 8856,
      "Tor": 8857,
      "_s": 8858,
      "bat": 8859,
      "biceps": 8860,
      "blade": 8861,
      "ev": 8862,
      "eag": 8863,
      "fel": 8864,
      "fir": 8865,
      "gust": 8866,
      "him": 8867,
      "hits": 8868,
      "ively": 8869,
      "jew": 8870,
      "mas": 8871,
      "nuc": 8872,
      "native": 8873,
      "nomen": 8874,
      "naked": 8875,
      "oic": 8876,
      "oph": 8877,
      "ophase": 8878,
      "pis": 8879,
      "prenatal": 8880,
      "rh": 8881,
      "race": 8882,
      "rRNA": 8883,
      "sag": 8884,
      "vox": 8885,
      "vice": 8886,
      "wal": 8887,
      "yser": 8888,
      "thos": 8889,
      "thrive": 8890,
      "inactive": 8891,
      "reci": 8892,
      "removes": 8893,
      "recomm": 8894,
      "attention": 8895,
      "onal": 8896,
      "onts": 8897,
      "ontium": 8898,
      "erode": 8899,
      "enic": 8900,
      "titration": 8901,
      "andes": 8902,
      "ico": 8903,
      "icy": 8904,
      "acific": 8905,
      "stacks": 8906,
      "stuck": 8907,
      "iture": 8908,
      "omas": 8909,
      "omones": 8910,
      "omics": 8911,
      "oly": 8912,
      "idation": 8913,
      "modes": 8914,
      "mosa": 8915,
      "promis": 8916,
      "program": 8917,
      "prolactin": 8918,
      "ulate": 8919,
      "ulatory": 8920,
      "ultrasound": 8921,
      "consequences": 8922,
      "concha": 8923,
      "conclusion": 8924,
      "conjug": 8925,
      "span": 8926,
      "usive": 8927,
      "untreated": 8928,
      "illed": 8929,
      "deferen": 8930,
      "deoxygenated": 8931,
      "geyser": 8932,
      "comet": 8933,
      "nebula": 8934,
      "performs": 8935,
      "meant": 8936,
      "teen": 8937,
      "twins": 8938,
      "mented": 8939,
      "pary": 8940,
      "veloci": 8941,
      "disaccharide": 8942,
      "dose": 8943,
      "contacts": 8944,
      "aches": 8945,
      "oxis": 8946,
      "volumes": 8947,
      "opter": 8948,
      "endother": 8949,
      "biologically": 8950,
      "izable": 8951,
      "despite": 8952,
      "rectum": 8953,
      "venules": 8954,
      "derive": 8955,
      "substanti": 8956,
      "syndesmo": 8957,
      "fronts": 8958,
      "arthropod": 8959,
      "pulley": 8960,
      "tape": 8961,
      "tailed": 8962,
      "stir": 8963,
      "laying": 8964,
      "ceptions": 8965,
      "nitrates": 8966,
      "ileum": 8967,
      "passages": 8968,
      "defec": 8969,
      "yourself": 8970,
      "enzymatic": 8971,
      "infancy": 8972,
      "hertz": 8973,
      "culosis": 8974,
      "Alken": 8975,
      "mutant": 8976,
      "ogenic": 8977,
      "celes": 8978,
      "polarizing": 8979,
      "transporting": 8980,
      "halves": 8981,
      "encodes": 8982,
      "Protons": 8983,
      "blur": 8984,
      "blind": 8985,
      "bitter": 8986,
      "cats": 8987,
      "phospho": 8988,
      "manipul": 8989,
      "pathogenic": 8990,
      "polyatomic": 8991,
      "enteric": 8992,
      "predominant": 8993,
      "Contrac": 8994,
      "shorten": 8995,
      "flood": 8996,
      "parous": 8997,
      "colliding": 8998,
      "seaweed": 8999,
      "covalently": 9000,
      "lacks": 9001,
      "accelerated": 9002,
      "galvan": 9003,
      "circulate": 9004,
      "modifications": 9005,
      "bulk": 9006,
      "catalytic": 9007,
      "autotrophic": 9008,
      "collecting": 9009,
      "peptid": 9010,
      "protecting": 9011,
      "arrows": 9012,
      "macronutrients": 9013,
      "warmed": 9014,
      "conditioned": 9015,
      "striated": 9016,
      "injected": 9017,
      "onomy": 9018,
      "ribosomal": 9019,
      "efficiently": 9020,
      "ashes": 9021,
      "zeros": 9022,
      "successfully": 9023,
      "difficulty": 9024,
      "colonize": 9025,
      "transcribed": 9026,
      "Being": 9027,
      "philis": 9028,
      "cutaneous": 9029,
      "younger": 9030,
      "diverge": 9031,
      "diversi": 9032,
      "silica": 9033,
      "Perhaps": 9034,
      "analyzed": 9035,
      "logic": 9036,
      "bronch": 9037,
      "transitions": 9038,
      "cluster": 9039,
      "pumping": 9040,
      "faults": 9041,
      "allergic": 9042,
      "designated": 9043,
      "killing": 9044,
      "penetrating": 9045,
      "emergen": 9046,
      "electronegative": 9047,
      "bump": 9048,
      "categorized": 9049,
      "improved": 9050,
      "fighting": 9051,
      "Coll": 9052,
      "coordinated": 9053,
      "phagocy": 9054,
      "explanations": 9055,
      "practices": 9056,
      "multiply": 9057,
      "Physics": 9058,
      "introduce": 9059,
      "propane": 9060,
      "polysaccharide": 9061,
      "ifying": 9062,
      "sticky": 9063,
      "Archae": 9064,
      "centipedes": 9065,
      "suddenly": 9066,
      "screen": 9067,
      "Transi": 9068,
      "retained": 9069,
      "descending": 9070,
      "University": 9071,
      "classifying": 9072,
      "thylakoids": 9073,
      "effort": 9074,
      "deleev": 9075,
      "Antibiotic": 9076,
      "interpret": 9077,
      "Catabolic": 9078,
      "Strong": 9079,
      "dormant": 9080,
      "glucagon": 9081,
      "Osmosis": 9082,
      "preparation": 9083,
      "Platelets": 9084,
      "turbulence": 9085,
      "incorporated": 9086,
      "brief": 9087,
      "Schwann": 9088,
      "enlarged": 9089,
      "nearest": 9090,
      "Homeostasis": 9091,
      "bounce": 9092,
      "Heart": 9093,
      "chicken": 9094,
      "precursor": 9095,
      "Pathogens": 9096,
      "interfere": 9097,
      "blastocyst": 9098,
      "stresses": 9099,
      "asymme": 9100,
      "ensalism": 9101,
      "transplant": 9102,
      "hammer": 9103,
      "acetate": 9104,
      "adequate": 9105,
      "Positive": 9106,
      "GnRH": 9107,
      "atrophy": 9108,
      "norepinephrine": 9109,
      "Excretion": 9110,
      "Speed": 9111,
      "vigor": 9112,
      "edema": 9113,
      "Ammonia": 9114,
      "disciplines": 9115,
      "Boyle": 9116,
      "Kingdom": 9117,
      "Neptune": 9118,
      "nomencl": 9119,
      "mosaic": 9120,
      "deferens": 9121,
      "velocities": 9122,
      "Alkenes": 9123,
      "2p": 9124,
      "Ag": 9125,
      "Ax": 9126,
      "Among": 9127,
      "Based": 9128,
      "GI": 9129,
      "Glands": 9130,
      "Gym": 9131,
      "Great": 9132,
      "Loc": 9133,
      "None": 9134,
      "Neg": 9135,
      "PE": 9136,
      "Pi": 9137,
      "RE": 9138,
      "Rh": 9139,
      "Rad": 9140,
      "Swe": 9141,
      "Shi": 9142,
      "Stem": 9143,
      "Sali": 9144,
      "Tre": 9145,
      "Try": 9146,
      "Tiny": 9147,
      "Ve": 9148,
      "Ves": 9149,
      "aph": 9150,
      "aids": 9151,
      "aired": 9152,
      "aortic": 9153,
      "border": 9154,
      "cof": 9155,
      "casion": 9156,
      "cecum": 9157,
      "densities": 9158,
      "glute": 9159,
      "gsten": 9160,
      "hr": 9161,
      "ius": 9162,
      "jour": 9163,
      "lagell": 9164,
      "mu": 9165,
      "mild": 9166,
[...]
